{
  "version": "1.0",
  "truncation": null,
  "padding": null,
  "added_tokens": [
    {
      "id": 0,
      "content": "[UNK]",
      "single_word": false,
      "lstrip": false,
      "rstrip": false,
      "normalized": false,
      "special": true
    },
    {
      "id": 1,
      "content": "[CLS]",
      "single_word": false,
      "lstrip": false,
      "rstrip": false,
      "normalized": false,
      "special": true
    },
    {
      "id": 2,
      "content": "[SEP]",
      "single_word": false,
      "lstrip": false,
      "rstrip": false,
      "normalized": false,
      "special": true
    },
    {
      "id": 3,
      "content": "[PAD]",
      "single_word": false,
      "lstrip": false,
      "rstrip": false,
      "normalized": false,
      "special": true
    },
    {
      "id": 4,
      "content": "[MASK]",
      "single_word": false,
      "lstrip": false,
      "rstrip": false,
      "normalized": false,
      "special": true
    }
  ],
  "normalizer": null,
  "pre_tokenizer": {
    "type": "Whitespace"
  },
  "post_processor": null,
  "decoder": null,
  "model": {
    "type": "BPE",
    "dropout": null,
    "unk_token": "[UNK]",
    "continuing_subword_prefix": null,
    "end_of_word_suffix": null,
    "fuse_unk": false,
    "byte_fallback": false,
    "ignore_merges": false,
    "vocab": {
      "[UNK]": 0,
      "[CLS]": 1,
      "[SEP]": 2,
      "[PAD]": 3,
      "[MASK]": 4,
      "!": 5,
      "\"": 6,
      "#": 7,
      "$": 8,
      "%": 9,
      "&": 10,
      "'": 11,
      "(": 12,
      ")": 13,
      "*": 14,
      "+": 15,
      ",": 16,
      "-": 17,
      ".": 18,
      "/": 19,
      "0": 20,
      "1": 21,
      "2": 22,
      "3": 23,
      "4": 24,
      "5": 25,
      "6": 26,
      "7": 27,
      "8": 28,
      "9": 29,
      ":": 30,
      ";": 31,
      "<": 32,
      "=": 33,
      ">": 34,
      "?": 35,
      "@": 36,
      "A": 37,
      "B": 38,
      "C": 39,
      "D": 40,
      "E": 41,
      "F": 42,
      "G": 43,
      "H": 44,
      "I": 45,
      "J": 46,
      "K": 47,
      "L": 48,
      "M": 49,
      "N": 50,
      "O": 51,
      "P": 52,
      "Q": 53,
      "R": 54,
      "S": 55,
      "T": 56,
      "U": 57,
      "V": 58,
      "W": 59,
      "X": 60,
      "Y": 61,
      "Z": 62,
      "[": 63,
      "\\": 64,
      "]": 65,
      "^": 66,
      "_": 67,
      "`": 68,
      "a": 69,
      "b": 70,
      "c": 71,
      "d": 72,
      "e": 73,
      "f": 74,
      "g": 75,
      "h": 76,
      "i": 77,
      "j": 78,
      "k": 79,
      "l": 80,
      "m": 81,
      "n": 82,
      "o": 83,
      "p": 84,
      "q": 85,
      "r": 86,
      "s": 87,
      "t": 88,
      "u": 89,
      "v": 90,
      "w": 91,
      "x": 92,
      "y": 93,
      "z": 94,
      "{": 95,
      "|": 96,
      "}": 97,
      "~": 98,
      "": 99,
      "": 100,
      "": 101,
      "": 102,
      "": 103,
      "": 104,
      "": 105,
      "": 106,
      "": 107,
      "": 108,
      "": 109,
      "": 110,
      "": 111,
      "": 112,
      "": 113,
      "": 114,
      "": 115,
      "": 116,
      "": 117,
      "": 118,
      "": 119,
      "": 120,
      "": 121,
      "": 122,
      "": 123,
      "": 124,
      "": 125,
      "¡": 126,
      "¢": 127,
      "£": 128,
      "¤": 129,
      "¥": 130,
      "¦": 131,
      "§": 132,
      "¨": 133,
      "©": 134,
      "ª": 135,
      "«": 136,
      "¬": 137,
      "­": 138,
      "®": 139,
      "¯": 140,
      "°": 141,
      "±": 142,
      "²": 143,
      "³": 144,
      "´": 145,
      "µ": 146,
      "¶": 147,
      "·": 148,
      "¸": 149,
      "¹": 150,
      "º": 151,
      "»": 152,
      "¼": 153,
      "½": 154,
      "¾": 155,
      "¿": 156,
      "Â": 157,
      "Ã": 158,
      "Ä": 159,
      "Æ": 160,
      "Ê": 161,
      "Ë": 162,
      "Ì": 163,
      "Í": 164,
      "Ï": 165,
      "×": 166,
      "Ù": 167,
      "à": 168,
      "á": 169,
      "â": 170,
      "ã": 171,
      "ä": 172,
      "å": 173,
      "æ": 174,
      "ç": 175,
      "é": 176,
      "ê": 177,
      "ë": 178,
      "ì": 179,
      "í": 180,
      "ï": 181,
      "ð": 182,
      "ó": 183,
      "ô": 184,
      "ö": 185,
      "÷": 186,
      "ú": 187,
      "Đ": 188,
      "đ": 189,
      "ę": 190,
      "ı": 191,
      "Œ": 192,
      "œ": 193,
      "Š": 194,
      "š": 195,
      "Ÿ": 196,
      "Ž": 197,
      "ž": 198,
      "ƒ": 199,
      "ư": 200,
      "ʻ": 201,
      "ˆ": 202,
      "˜": 203,
      "α": 204,
      "ả": 205,
      "ấ": 206,
      "ể": 207,
      "ợ": 208,
      "ủ": 209,
      "ữ": 210,
      "ỳ": 211,
      "​": 212,
      "‍": 213,
      "‎": 214,
      "‐": 215,
      "–": 216,
      "—": 217,
      "‘": 218,
      "’": 219,
      "‚": 220,
      "“": 221,
      "”": 222,
      "„": 223,
      "†": 224,
      "‡": 225,
      "•": 226,
      "…": 227,
      "‬": 228,
      "‭": 229,
      "‰": 230,
      "‹": 231,
      "›": 232,
      "⁉": 233,
      "⁠": 234,
      "€": 235,
      "™": 236,
      "↑": 237,
      "→": 238,
      "⏳": 239,
      "●": 240,
      "☠": 241,
      "☹": 242,
      "☺": 243,
      "♀": 244,
      "♂": 245,
      "♥": 246,
      "⚠": 247,
      "⚡": 248,
      "⛅": 249,
      "⛽": 250,
      "✅": 251,
      "✌": 252,
      "✨": 253,
      "❌": 254,
      "❓": 255,
      "❤": 256,
      "➡": 257,
      "➲": 258,
      "⬇": 259,
      "》": 260,
      "ツ": 261,
      "️": 262,
      "﻿": 263,
      "𝗘": 264,
      "𝗛": 265,
      "𝗠": 266,
      "𝗧": 267,
      "𝗮": 268,
      "𝗯": 269,
      "𝗰": 270,
      "𝗱": 271,
      "𝗲": 272,
      "𝗴": 273,
      "𝗶": 274,
      "𝗹": 275,
      "𝗻": 276,
      "𝗼": 277,
      "𝗽": 278,
      "𝗿": 279,
      "𝘀": 280,
      "𝘁": 281,
      "𝘂": 282,
      "𝘅": 283,
      "𝟭": 284,
      "🌊": 285,
      "🌷": 286,
      "🍃": 287,
      "🎓": 288,
      "🏴": 289,
      "🏻": 290,
      "🏼": 291,
      "🏽": 292,
      "🐕": 293,
      "🐟": 294,
      "🐰": 295,
      "👇": 296,
      "👋": 297,
      "👍": 298,
      "👩": 299,
      "💀": 300,
      "💅": 301,
      "💋": 302,
      "💔": 303,
      "💕": 304,
      "💖": 305,
      "💗": 306,
      "💚": 307,
      "💛": 308,
      "💜": 309,
      "💝": 310,
      "💨": 311,
      "💩": 312,
      "💫": 313,
      "💸": 314,
      "📷": 315,
      "🔃": 316,
      "🔥": 317,
      "🔴": 318,
      "🖕": 319,
      "🖤": 320,
      "😀": 321,
      "😁": 322,
      "😂": 323,
      "😅": 324,
      "😆": 325,
      "😇": 326,
      "😊": 327,
      "😌": 328,
      "😍": 329,
      "😏": 330,
      "😐": 331,
      "😑": 332,
      "😒": 333,
      "😓": 334,
      "😔": 335,
      "😕": 336,
      "😖": 337,
      "😚": 338,
      "😜": 339,
      "😞": 340,
      "😠": 341,
      "😢": 342,
      "😣": 343,
      "😥": 344,
      "😦": 345,
      "😨": 346,
      "😩": 347,
      "😪": 348,
      "😫": 349,
      "😬": 350,
      "😭": 351,
      "😮": 352,
      "😱": 353,
      "😳": 354,
      "😵": 355,
      "😹": 356,
      "🙁": 357,
      "🙂": 358,
      "🙃": 359,
      "🙄": 360,
      "🙈": 361,
      "🙋": 362,
      "🙌": 363,
      "🙏": 364,
      "🚩": 365,
      "🛑": 366,
      "🤍": 367,
      "🤔": 368,
      "🤕": 369,
      "🤗": 370,
      "🤞": 371,
      "🤡": 372,
      "🤣": 373,
      "🤦": 374,
      "🤩": 375,
      "🤫": 376,
      "🤭": 377,
      "🤯": 378,
      "🤷": 379,
      "🥕": 380,
      "🥰": 381,
      "🥱": 382,
      "🥲": 383,
      "🥳": 384,
      "🥹": 385,
      "🥺": 386,
      "🧡": 387,
      "🫠": 388,
      "🫢": 389,
      "🫣": 390,
      "🫤": 391,
      "🫶": 392,
      "th": 393,
      "in": 394,
      "an": 395,
      "er": 396,
      "ing": 397,
      "on": 398,
      "to": 399,
      "re": 400,
      "at": 401,
      "en": 402,
      "ou": 403,
      "st": 404,
      "me": 405,
      "and": 406,
      "al": 407,
      "or": 408,
      "the": 409,
      "is": 410,
      "it": 411,
      "se": 412,
      "no": 413,
      "ve": 414,
      "ha": 415,
      "be": 416,
      "my": 417,
      "le": 418,
      "ly": 419,
      "ed": 420,
      "of": 421,
      "ar": 422,
      "as": 423,
      "el": 424,
      "so": 425,
      "li": 426,
      "fe": 427,
      "wh": 428,
      "ke": 429,
      "ay": 430,
      "ut": 431,
      "do": 432,
      "ver": 433,
      "ti": 434,
      "am": 435,
      "he": 436,
      "that": 437,
      "not": 438,
      "wi": 439,
      "de": 440,
      "for": 441,
      "have": 442,
      "ic": 443,
      "gh": 444,
      "ac": 445,
      "out": 446,
      "one": 447,
      "ro": 448,
      "et": 449,
      "ld": 450,
      "ri": 451,
      "go": 452,
      "ab": 453,
      "es": 454,
      "ust": 455,
      "but": 456,
      "lo": 457,
      "ho": 458,
      "mo": 459,
      "thing": 460,
      "with": 461,
      "ll": 462,
      "this": 463,
      "ther": 464,
      "feel": 465,
      "just": 466,
      "ca": 467,
      "was": 468,
      "ent": 469,
      "ad": 470,
      "id": 471,
      "su": 472,
      "now": 473,
      "ant": 474,
      "ever": 475,
      "ally": 476,
      "you": 477,
      "ion": 478,
      "any": 479,
      "co": 480,
      "like": 481,
      "can": 482,
      "ch": 483,
      "pe": 484,
      "ght": 485,
      "use": 486,
      "ss": 487,
      "ould": 488,
      "some": 489,
      "wor": 490,
      "all": 491,
      "king": 492,
      "un": 493,
      "ter": 494,
      "po": 495,
      "get": 496,
      "end": 497,
      "ce": 498,
      "if": 499,
      "are": 500,
      "want": 501,
      "ple": 502,
      "ex": 503,
      "ma": 504,
      "lf": 505,
      "we": 506,
      "time": 507,
      "about": 508,
      "up": 509,
      "day": 510,
      "know": 511,
      "self": 512,
      "ag": 513,
      "ir": 514,
      "cause": 515,
      "pre": 516,
      "con": 517,
      "way": 518,
      "ne": 519,
      "ry": 520,
      "od": 521,
      "ain": 522,
      "her": 523,
      "sh": 524,
      "per": 525,
      "been": 526,
      "art": 527,
      "ven": 528,
      "pp": 529,
      "ur": 530,
      "because": 531,
      "ation": 532,
      "AA": 533,
      "what": 534,
      "..": 535,
      "ate": 536,
      "im": 537,
      "every": 538,
      "had": 539,
      "ear": 540,
      "how": 541,
      "ep": 542,
      "life": 543,
      "myself": 544,
      "don": 545,
      "when": 546,
      "nd": 547,
      "ill": 548,
      "more": 549,
      "di": 550,
      "they": 551,
      "thin": 552,
      "ast": 553,
      "ul": 554,
      "ople": 555,
      "com": 556,
      "rom": 557,
      "even": 558,
      "people": 559,
      "ind": 560,
      "really": 561,
      "year": 562,
      "will": 563,
      "ough": 564,
      "would": 565,
      "ive": 566,
      "ment": 567,
      "ack": 568,
      "from": 569,
      "riend": 570,
      "ell": 571,
      "xi": 572,
      "ap": 573,
      "ving": 574,
      "other": 575,
      "ting": 576,
      "see": 577,
      "pro": 578,
      "red": 579,
      "friend": 580,
      "sed": 581,
      "anxi": 582,
      "she": 583,
      "ere": 584,
      "uc": 585,
      "ide": 586,
      "think": 587,
      "ong": 588,
      "hel": 589,
      "ta": 590,
      "mu": 591,
      "ight": 592,
      "tion": 593,
      "It": 594,
      "il": 595,
      "der": 596,
      "them": 597,
      "af": 598,
      "help": 599,
      "ess": 600,
      "going": 601,
      "did": 602,
      "sa": 603,
      "ety": 604,
      "te": 605,
      "fo": 606,
      "tr": 607,
      "work": 608,
      "there": 609,
      "has": 610,
      "wn": 611,
      "pl": 612,
      "who": 613,
      "over": 614,
      "make": 615,
      "able": 616,
      "ge": 617,
      "ous": 618,
      "sc": 619,
      "ble": 620,
      "our": 621,
      "sp": 622,
      "much": 623,
      "med": 624,
      "Th": 625,
      "nt": 626,
      "being": 627,
      "ound": 628,
      "depre": 629,
      "too": 630,
      "start": 631,
      "anxiety": 632,
      "us": 633,
      "tal": 634,
      "My": 635,
      "The": 636,
      "happ": 637,
      "never": 638,
      "AAAA": 639,
      "could": 640,
      "ine": 641,
      "ought": 642,
      "ist": 643,
      "act": 644,
      "jo": 645,
      "ci": 646,
      "man": 647,
      "mp": 648,
      "back": 649,
      "qu": 650,
      "ms": 651,
      "very": 652,
      "cannot": 653,
      "ps": 654,
      "try": 655,
      "things": 656,
      "got": 657,
      "only": 658,
      "sto": 659,
      "int": 660,
      "gu": 661,
      "need": 662,
      "ways": 663,
      "feeling": 664,
      "mon": 665,
      "years": 666,
      "Wh": 667,
      "ct": 668,
      "ks": 669,
      "ity": 670,
      "something": 671,
      "ol": 672,
      "thought": 673,
      "dis": 674,
      "by": 675,
      "here": 676,
      "ra": 677,
      "ru": 678,
      "har": 679,
      "ily": 680,
      "your": 681,
      "most": 682,
      "wee": 683,
      "So": 684,
      "still": 685,
      "say": 686,
      "ty": 687,
      "ked": 688,
      "off": 689,
      "bet": 690,
      "then": 691,
      "son": 692,
      "anyone": 693,
      "anything": 694,
      "But": 695,
      "than": 696,
      "after": 697,
      "depress": 698,
      "good": 699,
      "where": 700,
      "stre": 701,
      "less": 702,
      "month": 703,
      "friends": 704,
      "times": 705,
      "ated": 706,
      "always": 707,
      "ile": 708,
      "him": 709,
      "fuc": 710,
      "come": 711,
      "read": 712,
      "bi": 713,
      "bad": 714,
      "ince": 715,
      "take": 716,
      "ful": 717,
      "long": 718,
      "ich": 719,
      "also": 720,
      "does": 721,
      "rel": 722,
      "mb": 723,
      "person": 724,
      "loo": 725,
      "fore": 726,
      "ried": 727,
      "point": 728,
      "again": 729,
      "bo": 730,
      "right": 731,
      "ish": 732,
      "ace": 733,
      "love": 734,
      "ort": 735,
      "ow": 736,
      "better": 737,
      "est": 738,
      "fer": 739,
      "someone": 740,
      "rough": 741,
      "...": 742,
      "down": 743,
      "fa": 744,
      "its": 745,
      "which": 746,
      "job": 747,
      "low": 748,
      "into": 749,
      "fam": 750,
      "last": 751,
      "rea": 752,
      "ext": 753,
      "lot": 754,
      "live": 755,
      "age": 756,
      "alth": 757,
      "peri": 758,
      "sit": 759,
      "everything": 760,
      "wo": 761,
      "pain": 762,
      "wa": 763,
      "ure": 764,
      "since": 765,
      "And": 766,
      "lit": 767,
      "gr": 768,
      "iz": 769,
      "care": 770,
      "ice": 771,
      "tell": 772,
      "getting": 773,
      "anymore": 774,
      "ard": 775,
      "through": 776,
      "having": 777,
      "ang": 778,
      "leep": 779,
      "family": 780,
      "gg": 781,
      "keep": 782,
      "else": 783,
      "new": 784,
      "depression": 785,
      "ence": 786,
      "ating": 787,
      "ssed": 788,
      "happen": 789,
      "br": 790,
      "ach": 791,
      "real": 792,
      "few": 793,
      "before": 794,
      "started": 795,
      "why": 796,
      "ten": 797,
      "ody": 798,
      "health": 799,
      "days": 800,
      "should": 801,
      "tor": 802,
      "nothing": 803,
      "vi": 804,
      "talk": 805,
      "ite": 806,
      "body": 807,
      "sic": 808,
      "tic": 809,
      "sure": 810,
      "doing": 811,
      "find": 812,
      "sleep": 813,
      "fel": 814,
      "irst": 815,
      "cont": 816,
      "led": 817,
      "wr": 818,
      "ass": 819,
      "hard": 820,
      "experi": 821,
      "side": 822,
      "sy": 823,
      "ually": 824,
      "ave": 825,
      "stress": 826,
      "AAAAAAAA": 827,
      "week": 828,
      "felt": 829,
      "under": 830,
      "cl": 831,
      "therap": 832,
      "ue": 833,
      "suic": 834,
      "shi": 835,
      "around": 836,
      "fin": 837,
      "were": 838,
      "shit": 839,
      "trying": 840,
      "gre": 841,
      "well": 842,
      "ning": 843,
      "ser": 844,
      "An": 845,
      "hate": 846,
      "months": 847,
      "said": 848,
      "may": 849,
      "while": 850,
      "cou": 851,
      "20": 852,
      "lar": 853,
      "head": 854,
      "hool": 855,
      "night": 856,
      "hy": 857,
      "che": 858,
      "first": 859,
      "inter": 860,
      "part": 861,
      "kill": 862,
      "om": 863,
      "fi": 864,
      "their": 865,
      "He": 866,
      "ago": 867,
      "told": 868,
      "mal": 869,
      "nor": 870,
      "school": 871,
      "ance": 872,
      "everyone": 873,
      "these": 874,
      "stu": 875,
      "ers": 876,
      "soci": 877,
      "No": 878,
      "die": 879,
      "hi": 880,
      "ase": 881,
      "away": 882,
      "stand": 883,
      "mor": 884,
      "This": 885,
      "op": 886,
      "fucking": 887,
      "reas": 888,
      "made": 889,
      "went": 890,
      "pare": 891,
      "his": 892,
      "mind": 893,
      "doc": 894,
      "medic": 895,
      "tle": 896,
      "dif": 897,
      "agno": 898,
      "didn": 899,
      ").": 900,
      "diagno": 901,
      "reme": 902,
      "used": 903,
      "put": 904,
      "cent": 905,
      "chi": 906,
      "brea": 907,
      "How": 908,
      "home": 909,
      "enc": 910,
      "spe": 911,
      "hur": 912,
      "tired": 913,
      "past": 914,
      "polar": 915,
      "psy": 916,
      "av": 917,
      "ness": 918,
      "feels": 919,
      "alone": 920,
      "kind": 921,
      "give": 922,
      "cer": 923,
      "ling": 924,
      "ts": 925,
      "dr": 926,
      "stop": 927,
      "ef": 928,
      "str": 929,
      "symp": 930,
      "cared": 931,
      "thinking": 932,
      "mat": 933,
      "na": 934,
      "enough": 935,
      "ck": 936,
      "hope": 937,
      "won": 938,
      "mis": 939,
      "tried": 940,
      "proble": 941,
      "same": 942,
      "post": 943,
      "worse": 944,
      "sympto": 945,
      "stant": 946,
      "many": 947,
      "thoughts": 948,
      "old": 949,
      "let": 950,
      "makes": 951,
      "mental": 952,
      "parent": 953,
      "though": 954,
      "reason": 955,
      "happy": 956,
      "wanted": 957,
      "relation": 958,
      "si": 959,
      "ok": 960,
      "Any": 961,
      "clo": 962,
      "pr": 963,
      "little": 964,
      "actually": 965,
      "sur": 966,
      "mber": 967,
      "two": 968,
      "pt": 969,
      "relationshi": 970,
      "If": 971,
      "doctor": 972,
      "ft": 973,
      "order": 974,
      "What": 975,
      "cho": 976,
      "bit": 977,
      "hone": 978,
      "hour": 979,
      "att": 980,
      "sing": 981,
      "scared": 982,
      "ia": 983,
      "ready": 984,
      "pret": 985,
      "wish": 986,
      "ies": 987,
      "own": 988,
      "done": 989,
      "au": 990,
      "min": 991,
      "til": 992,
      "app": 993,
      "bab": 994,
      "heart": 995,
      "tho": 996,
      "ward": 997,
      "issu": 998,
      "ner": 999,
      "normal": 1000,
      "deal": 1001,
      "mean": 1002,
      "ath": 1003,
      "without": 1004,
      "adv": 1005,
      "ction": 1006,
      "understand": 1007,
      "ations": 1008,
      "row": 1009,
      "bed": 1010,
      "high": 1011,
      "parents": 1012,
      "stru": 1013,
      "left": 1014,
      "tre": 1015,
      "bu": 1016,
      "cle": 1017,
      "symptoms": 1018,
      "constant": 1019,
      "move": 1020,
      "She": 1021,
      "Do": 1022,
      "bipolar": 1023,
      "urn": 1024,
      "sha": 1025,
      "fort": 1026,
      "social": 1027,
      "bro": 1028,
      "strugg": 1029,
      "lie": 1030,
      "taking": 1031,
      "**": 1032,
      "best": 1033,
      "fun": 1034,
      "depressed": 1035,
      "weeks": 1036,
      "amp": 1037,
      "cal": 1038,
      "ious": 1039,
      "vent": 1040,
      "maybe": 1041,
      "world": 1042,
      "comple": 1043,
      "motion": 1044,
      "sen": 1045,
      "until": 1046,
      "differ": 1047,
      "10": 1048,
      "pan": 1049,
      "cur": 1050,
      "wrong": 1051,
      "today": 1052,
      "living": 1053,
      "gn": 1054,
      "almost": 1055,
      "ener": 1056,
      "oid": 1057,
      "ately": 1058,
      "hand": 1059,
      "aw": 1060,
      "guy": 1061,
      "tive": 1062,
      "might": 1063,
      "brain": 1064,
      "pretty": 1065,
      "ary": 1066,
      "dy": 1067,
      "dit": 1068,
      "par": 1069,
      "ically": 1070,
      "fect": 1071,
      "came": 1072,
      "bably": 1073,
      "diagnosed": 1074,
      "fear": 1075,
      "making": 1076,
      "look": 1077,
      "place": 1078,
      "uck": 1079,
      "When": 1080,
      "sm": 1081,
      "those": 1082,
      "mom": 1083,
      "another": 1084,
      "sometimes": 1085,
      "car": 1086,
      "um": 1087,
      "iso": 1088,
      "ange": 1089,
      "meds": 1090,
      "ult": 1091,
      "leave": 1092,
      "inc": 1093,
      "emotion": 1094,
      "cently": 1095,
      "ree": 1096,
      "complete": 1097,
      "ssi": 1098,
      "probably": 1099,
      "ions": 1100,
      "isode": 1101,
      "In": 1102,
      "sad": 1103,
      "dec": 1104,
      "ater": 1105,
      "den": 1106,
      "already": 1107,
      "episode": 1108,
      "blo": 1109,
      "ouse": 1110,
      "others": 1111,
      "gir": 1112,
      "doesn": 1113,
      "stay": 1114,
      "suicide": 1115,
      "ise": 1116,
      "therapy": 1117,
      "cry": 1118,
      "panic": 1119,
      "experienc": 1120,
      "bl": 1121,
      "possi": 1122,
      "col": 1123,
      "cess": 1124,
      "plan": 1125,
      "relationship": 1126,
      "different": 1127,
      "ff": 1128,
      "tri": 1129,
      "pu": 1130,
      "anxious": 1131,
      "comm": 1132,
      "attack": 1133,
      "mone": 1134,
      "tt": 1135,
      "experience": 1136,
      "ses": 1137,
      "imp": 1138,
      "working": 1139,
      "Every": 1140,
      "show": 1141,
      "hu": 1142,
      "AAAAAAAAAAAAAAAA": 1143,
      "turn": 1144,
      "house": 1145,
      "Is": 1146,
      "PD": 1147,
      "ick": 1148,
      "next": 1149,
      "hours": 1150,
      "talking": 1151,
      "We": 1152,
      "atch": 1153,
      "call": 1154,
      "vers": 1155,
      "idal": 1156,
      "Li": 1157,
      "advice": 1158,
      "cr": 1159,
      "pped": 1160,
      "rent": 1161,
      "ste": 1162,
      "They": 1163,
      "ak": 1164,
      "lost": 1165,
      "gy": 1166,
      "room": 1167,
      "orry": 1168,
      "wonder": 1169,
      "ob": 1170,
      "therapist": 1171,
      "ask": 1172,
      "money": 1173,
      "looking": 1174,
      "suf": 1175,
      "lieve": 1176,
      "seems": 1177,
      "suicidal": 1178,
      "conf": 1179,
      "sw": 1180,
      "ird": 1181,
      "recently": 1182,
      "hurt": 1183,
      "coming": 1184,
      "terri": 1185,
      "sol": 1186,
      "found": 1187,
      "situ": 1188,
      "set": 1189,
      "child": 1190,
      "disorder": 1191,
      "issues": 1192,
      "ative": 1193,
      "gi": 1194,
      "guess": 1195,
      "je": 1196,
      "sick": 1197,
      "men": 1198,
      "manic": 1199,
      "once": 1200,
      "dri": 1201,
      "suffer": 1202,
      "rest": 1203,
      "eas": 1204,
      "iting": 1205,
      "ute": 1206,
      "ken": 1207,
      "ted": 1208,
      "uring": 1209,
      "close": 1210,
      "supp": 1211,
      "least": 1212,
      "sever": 1213,
      "phy": 1214,
      "hor": 1215,
      "such": 1216,
      "whole": 1217,
      "test": 1218,
      "etc": 1219,
      "ream": 1220,
      "You": 1221,
      "fu": 1222,
      "--": 1223,
      "stuff": 1224,
      "Some": 1225,
      "Be": 1226,
      "completely": 1227,
      "ither": 1228,
      "colle": 1229,
      "zy": 1230,
      "line": 1231,
      "rist": 1232,
      "finally": 1233,
      "worry": 1234,
      "worth": 1235,
      "joy": 1236,
      "believe": 1237,
      "took": 1238,
      "To": 1239,
      "ual": 1240,
      "great": 1241,
      "avoid": 1242,
      "Than": 1243,
      "ud": 1244,
      "sist": 1245,
      "comfort": 1246,
      "AN": 1247,
      "contro": 1248,
      "enti": 1249,
      "ments": 1250,
      ":/": 1251,
      "kid": 1252,
      "fl": 1253,
      "fr": 1254,
      "Now": 1255,
      "happened": 1256,
      "seem": 1257,
      "extreme": 1258,
      "due": 1259,
      "wal": 1260,
      "Just": 1261,
      "ital": 1262,
      "htt": 1263,
      "constantly": 1264,
      "physic": 1265,
      "ize": 1266,
      "break": 1267,
      "matter": 1268,
      "sub": 1269,
      "quest": 1270,
      "remember": 1271,
      "suc": 1272,
      "ng": 1273,
      "change": 1274,
      "list": 1275,
      "play": 1276,
      "liter": 1277,
      "iness": 1278,
      "ized": 1279,
      "bas": 1280,
      "light": 1281,
      "fuck": 1282,
      "ame": 1283,
      "),": 1284,
      "Why": 1285,
      "cour": 1286,
      "tiv": 1287,
      "count": 1288,
      "medication": 1289,
      "honest": 1290,
      "cept": 1291,
      "RE": 1292,
      "couple": 1293,
      "become": 1294,
      "weird": 1295,
      "log": 1296,
      "possible": 1297,
      "gone": 1298,
      "problem": 1299,
      "fine": 1300,
      "yet": 1301,
      "worried": 1302,
      "usu": 1303,
      "pres": 1304,
      "://": 1305,
      "ility": 1306,
      "mg": 1307,
      "raid": 1308,
      "For": 1309,
      "either": 1310,
      "problems": 1311,
      "dad": 1312,
      "interest": 1313,
      "fic": 1314,
      "scri": 1315,
      "spon": 1316,
      "ie": 1317,
      "college": 1318,
      "??": 1319,
      "ending": 1320,
      "literally": 1321,
      "sex": 1322,
      "please": 1323,
      "pay": 1324,
      "exist": 1325,
      "afraid": 1326,
      "action": 1327,
      "current": 1328,
      "feelings": 1329,
      "https": 1330,
      "haven": 1331,
      "mother": 1332,
      "big": 1333,
      "cond": 1334,
      "ot": 1335,
      "respon": 1336,
      "des": 1337,
      "mess": 1338,
      "idea": 1339,
      "control": 1340,
      "wake": 1341,
      "watch": 1342,
      "emp": 1343,
      "soon": 1344,
      "hear": 1345,
      "mar": 1346,
      "during": 1347,
      "beg": 1348,
      "sis": 1349,
      "often": 1350,
      "spital": 1351,
      "situation": 1352,
      "face": 1353,
      "personal": 1354,
      "sim": 1355,
      "hospital": 1356,
      "appoint": 1357,
      "Av": 1358,
      "tru": 1359,
      "ey": 1360,
      "chiat": 1361,
      "Al": 1362,
      "wasn": 1363,
      "All": 1364,
      "temp": 1365,
      "enjoy": 1366,
      "using": 1367,
      "cre": 1368,
      "saying": 1369,
      "ping": 1370,
      "add": 1371,
      "fall": 1372,
      "ended": 1373,
      "death": 1374,
      "sup": 1375,
      "fail": 1376,
      "cra": 1377,
      "fut": 1378,
      "second": 1379,
      "guys": 1380,
      "drin": 1381,
      "vis": 1382,
      "far": 1383,
      "IT": 1384,
      "upid": 1385,
      "boy": 1386,
      "morning": 1387,
      "blood": 1388,
      "sorry": 1389,
      "psychiat": 1390,
      "later": 1391,
      "pic": 1392,
      "30": 1393,
      "That": 1394,
      "lear": 1395,
      "future": 1396,
      "stupid": 1397,
      "pa": 1398,
      "cy": 1399,
      "cially": 1400,
      "support": 1401,
      "mood": 1402,
      "gether": 1403,
      "plain": 1404,
      "full": 1405,
      "open": 1406,
      "eat": 1407,
      "together": 1408,
      "girl": 1409,
      "sho": 1410,
      "There": 1411,
      "ided": 1412,
      "umb": 1413,
      "Does": 1414,
      "run": 1415,
      "isn": 1416,
      "mi": 1417,
      "asked": 1418,
      "200": 1419,
      "fact": 1420,
      "cted": 1421,
      "ves": 1422,
      "mer": 1423,
      "bur": 1424,
      "serious": 1425,
      "sk": 1426,
      "ww": 1427,
      "gs": 1428,
      "cut": 1429,
      "arely": 1430,
      "dream": 1431,
      "okay": 1432,
      "hold": 1433,
      "vious": 1434,
      "chang": 1435,
      "fully": 1436,
      "phone": 1437,
      "dam": 1438,
      "comp": 1439,
      "ig": 1440,
      "psycho": 1441,
      "each": 1442,
      "cu": 1443,
      "lic": 1444,
      "starting": 1445,
      "posit": 1446,
      "reg": 1447,
      "treat": 1448,
      "small": 1449,
      "val": 1450,
      "moment": 1451,
      "AvPD": 1452,
      "sense": 1453,
      "gener": 1454,
      "Like": 1455,
      "arly": 1456,
      "ash": 1457,
      "cancer": 1458,
      "worst": 1459,
      "hal": 1460,
      "word": 1461,
      "sound": 1462,
      "extremely": 1463,
      "dro": 1464,
      "ned": 1465,
      "gets": 1466,
      "event": 1467,
      "ered": 1468,
      "struggling": 1469,
      "horri": 1470,
      "chest": 1471,
      "sul": 1472,
      "ming": 1473,
      "les": 1474,
      "ati": 1475,
      "fight": 1476,
      "sid": 1477,
      "super": 1478,
      "mania": 1479,
      "ings": 1480,
      "usually": 1481,
      "Not": 1482,
      "stressed": 1483,
      "psychiatrist": 1484,
      "Then": 1485,
      "pri": 1486,
      "Its": 1487,
      "hypo": 1488,
      "oc": 1489,
      "dead": 1490,
      "couldn": 1491,
      "hell": 1492,
      "gotten": 1493,
      "stead": 1494,
      "foc": 1495,
      "comes": 1496,
      "suppo": 1497,
      "anti": 1498,
      "short": 1499,
      "ins": 1500,
      "ake": 1501,
      "reading": 1502,
      "IN": 1503,
      "medi": 1504,
      "hes": 1505,
      "ved": 1506,
      "telling": 1507,
      "cor": 1508,
      "longer": 1509,
      "honestly": 1510,
      "needed": 1511,
      "state": 1512,
      "pass": 1513,
      "neg": 1514,
      "trau": 1515,
      "Af": 1516,
      "deep": 1517,
      "press": 1518,
      "sign": 1519,
      "hit": 1520,
      "ces": 1521,
      "dont": 1522,
      "bly": 1523,
      "arch": 1524,
      "gest": 1525,
      "!!": 1526,
      "stopped": 1527,
      "res": 1528,
      "ew": 1529,
      "both": 1530,
      "solute": 1531,
      "decided": 1532,
      "KE": 1533,
      "MO": 1534,
      "contin": 1535,
      "seeing": 1536,
      "lease": 1537,
      "everyday": 1538,
      "grou": 1539,
      "knew": 1540,
      "Hi": 1541,
      "conv": 1542,
      "called": 1543,
      "ton": 1544,
      "says": 1545,
      "half": 1546,
      "00": 1547,
      "May": 1548,
      "TA": 1549,
      "bor": 1550,
      "meet": 1551,
      "effect": 1552,
      "basically": 1553,
      "uni": 1554,
      "dying": 1555,
      "motiv": 1556,
      "crying": 1557,
      "trigg": 1558,
      "exam": 1559,
      "ANY": 1560,
      "After": 1561,
      "ities": 1562,
      "ween": 1563,
      "weight": 1564,
      "ability": 1565,
      "severe": 1566,
      "oo": 1567,
      "food": 1568,
      "miss": 1569,
      "comfortable": 1570,
      "young": 1571,
      "absolute": 1572,
      "Even": 1573,
      "notic": 1574,
      "energy": 1575,
      "expe": 1576,
      "vide": 1577,
      "course": 1578,
      "dru": 1579,
      "....": 1580,
      "eating": 1581,
      "18": 1582,
      "ates": 1583,
      "arr": 1584,
      "currently": 1585,
      "top": 1586,
      "form": 1587,
      "wants": 1588,
      "ical": 1589,
      "listen": 1590,
      "ost": 1591,
      "AAAAAAAAAAAAAAAAAAAAAAAAAAAAAAAA": 1592,
      "ited": 1593,
      "Can": 1594,
      "class": 1595,
      "entire": 1596,
      "ering": 1597,
      "deser": 1598,
      "boyfriend": 1599,
      "Anyone": 1600,
      "fol": 1601,
      "Re": 1602,
      "frea": 1603,
      "diffic": 1604,
      "wondering": 1605,
      "yourself": 1606,
      "loved": 1607,
      "human": 1608,
      "attemp": 1609,
      "nice": 1610,
      "single": 1611,
      "As": 1612,
      "hang": 1613,
      "At": 1614,
      "ying": 1615,
      "gen": 1616,
      "x200": 1617,
      "x200B": 1618,
      "15": 1619,
      "free": 1620,
      "tain": 1621,
      "conne": 1622,
      "barely": 1623,
      "mach": 1624,
      "commun": 1625,
      "ump": 1626,
      "haust": 1627,
      "goes": 1628,
      "game": 1629,
      "itch": 1630,
      "mag": 1631,
      "question": 1632,
      "ident": 1633,
      "vel": 1634,
      "horrible": 1635,
      "slow": 1636,
      "stuck": 1637,
      "dden": 1638,
      "consid": 1639,
      "alive": 1640,
      "aving": 1641,
      "appe": 1642,
      "truly": 1643,
      "between": 1644,
      "MORE": 1645,
      "sort": 1646,
      "convers": 1647,
      "TAKE": 1648,
      "supposed": 1649,
      ";#": 1650,
      "crazy": 1651,
      "preci": 1652,
      "Fe": 1653,
      "asking": 1654,
      "ER": 1655,
      "exhaust": 1656,
      "On": 1657,
      "espe": 1658,
      "ier": 1659,
      "Id": 1660,
      "apart": 1661,
      "especially": 1662,
      "inside": 1663,
      "gave": 1664,
      "anger": 1665,
      "healthy": 1666,
      "push": 1667,
      "fied": 1668,
      "ANYMORE": 1669,
      "mist": 1670,
      "resul": 1671,
      "De": 1672,
      "instead": 1673,
      "Thanks": 1674,
      "pping": 1675,
      "physical": 1676,
      "partner": 1677,
      "qui": 1678,
      "angry": 1679,
      "Or": 1680,
      "lone": 1681,
      "mid": 1682,
      "ont": 1683,
      "Maybe": 1684,
      "Hel": 1685,
      "sudden": 1686,
      "explain": 1687,
      "fix": 1688,
      "reddit": 1689,
      "search": 1690,
      "inten": 1691,
      "guil": 1692,
      "online": 1693,
      "vid": 1694,
      "la": 1695,
      "da": 1696,
      "exc": 1697,
      "father": 1698,
      "answ": 1699,
      "appointment": 1700,
      "lonely": 1701,
      "happens": 1702,
      "outside": 1703,
      "saw": 1704,
      "quite": 1705,
      "share": 1706,
      "bring": 1707,
      "helped": 1708,
      "seen": 1709,
      "appreci": 1710,
      "ulti": 1711,
      "rid": 1712,
      "ount": 1713,
      "spec": 1714,
      "follow": 1715,
      "smo": 1716,
      "reach": 1717,
      "wards": 1718,
      "issue": 1719,
      "attacks": 1720,
      "type": 1721,
      "ills": 1722,
      "strong": 1723,
      "sel": 1724,
      "accept": 1725,
      "function": 1726,
      "tou": 1727,
      "worked": 1728,
      "group": 1729,
      "ax": 1730,
      "ilar": 1731,
      "story": 1732,
      "moved": 1733,
      "hurts": 1734,
      "terrible": 1735,
      "noticed": 1736,
      "three": 1737,
      "brother": 1738,
      "ah": 1739,
      "ester": 1740,
      "](": 1741,
      "Please": 1742,
      "cover": 1743,
      "cked": 1744,
      "als": 1745,
      "late": 1746,
      "ruin": 1747,
      "ised": 1748,
      "whel": 1749,
      "handle": 1750,
      "ee": 1751,
      "sess": 1752,
      "esterday": 1753,
      "assed": 1754,
      "jor": 1755,
      "lately": 1756,
      "lfriend": 1757,
      "level": 1758,
      "cial": 1759,
      "text": 1760,
      "spo": 1761,
      "vo": 1762,
      "spent": 1763,
      "irr": 1764,
      "lying": 1765,
      "whatever": 1766,
      "similar": 1767,
      "tice": 1768,
      "stomach": 1769,
      "ark": 1770,
      "wast": 1771,
      "girlfriend": 1772,
      "lose": 1773,
      "period": 1774,
      "aged": 1775,
      "taken": 1776,
      "cold": 1777,
      "ster": 1778,
      "diagnosis": 1779,
      "trust": 1780,
      "band": 1781,
      "fre": 1782,
      "nobody": 1783,
      "ones": 1784,
      "allow": 1785,
      "relationships": 1786,
      "emotions": 1787,
      "TH": 1788,
      "ism": 1789,
      "illness": 1790,
      "difficult": 1791,
      "hind": 1792,
      "knowing": 1793,
      "struggle": 1794,
      "emb": 1795,
      "thro": 1796,
      "quit": 1797,
      "miser": 1798,
      "bt": 1799,
      "However": 1800,
      "broke": 1801,
      "pd": 1802,
      "absolutely": 1803,
      "suffering": 1804,
      "pur": 1805,
      "12": 1806,
      "bus": 1807,
      "figu": 1808,
      "major": 1809,
      "Sometimes": 1810,
      "utes": 1811,
      "ced": 1812,
      "spend": 1813,
      "gra": 1814,
      "overwhel": 1815,
      "Im": 1816,
      "step": 1817,
      "rather": 1818,
      "ium": 1819,
      "prof": 1820,
      "aut": 1821,
      "usive": 1822,
      "grad": 1823,
      "died": 1824,
      "view": 1825,
      "experiences": 1826,
      "ched": 1827,
      "experienced": 1828,
      "case": 1829,
      "memor": 1830,
      "fast": 1831,
      "minutes": 1832,
      "sent": 1833,
      "ane": 1834,
      "depressive": 1835,
      "isol": 1836,
      "killing": 1837,
      "hood": 1838,
      "negative": 1839,
      "video": 1840,
      "vol": 1841,
      "oud": 1842,
      "import": 1843,
      "mentally": 1844,
      "ants": 1845,
      "desp": 1846,
      "stable": 1847,
      "met": 1848,
      "ries": 1849,
      "velo": 1850,
      "ouble": 1851,
      "prescri": 1852,
      "check": 1853,
      "manage": 1854,
      "\".": 1855,
      "kids": 1856,
      "vous": 1857,
      "rand": 1858,
      "iled": 1859,
      "tomor": 1860,
      "certain": 1861,
      "defin": 1862,
      "ni": 1863,
      "deserve": 1864,
      "tomorrow": 1865,
      "ens": 1866,
      "losing": 1867,
      "pressure": 1868,
      "dest": 1869,
      "eng": 1870,
      "amount": 1871,
      "kept": 1872,
      "develo": 1873,
      "wait": 1874,
      "Thank": 1875,
      "Also": 1876,
      "Feel": 1877,
      "spir": 1878,
      "ease": 1879,
      "fucked": 1880,
      "given": 1881,
      "option": 1882,
      "mention": 1883,
      "ber": 1884,
      "behind": 1885,
      "important": 1886,
      "active": 1887,
      "fac": 1888,
      "grow": 1889,
      "concer": 1890,
      "clean": 1891,
      "idk": 1892,
      "nervous": 1893,
      "wanting": 1894,
      "AD": 1895,
      "emotional": 1896,
      "general": 1897,
      "forward": 1898,
      "gon": 1899,
      "reli": 1900,
      "knows": 1901,
      "pul": 1902,
      "sug": 1903,
      "easy": 1904,
      "true": 1905,
      "ject": 1906,
      "main": 1907,
      "focus": 1908,
      "imag": 1909,
      "daily": 1910,
      "talked": 1911,
      "eyes": 1912,
      "ug": 1913,
      "ren": 1914,
      "happening": 1915,
      "swe": 1916,
      "begin": 1917,
      "az": 1918,
      "numb": 1919,
      "words": 1920,
      "mit": 1921,
      "ref": 1922,
      "appear": 1923,
      "Well": 1924,
      "tory": 1925,
      "amic": 1926,
      "impro": 1927,
      "24": 1928,
      "mostly": 1929,
      "Bi": 1930,
      "episodes": 1931,
      "safe": 1932,
      "write": 1933,
      "ny": 1934,
      "sleeping": 1935,
      "dealing": 1936,
      "ustr": 1937,
      "harm": 1938,
      "lol": 1939,
      "related": 1940,
      "writing": 1941,
      "giving": 1942,
      "turned": 1943,
      "ently": 1944,
      "study": 1945,
      "random": 1946,
      "irth": 1947,
      "ank": 1948,
      "personality": 1949,
      "aware": 1950,
      "sister": 1951,
      "intern": 1952,
      "male": 1953,
      "hus": 1954,
      "surance": 1955,
      "contact": 1956,
      "lead": 1957,
      "acc": 1958,
      "19": 1959,
      "One": 1960,
      "og": 1961,
      "obvious": 1962,
      "success": 1963,
      "positive": 1964,
      "ific": 1965,
      "mistake": 1966,
      "Pe": 1967,
      "quick": 1968,
      "calm": 1969,
      "ili": 1970,
      "exp": 1971,
      "unch": 1972,
      "ING": 1973,
      "leg": 1974,
      "drive": 1975,
      "waiting": 1976,
      "hair": 1977,
      "early": 1978,
      "name": 1979,
      "100": 1980,
      "peace": 1981,
      "whe": 1982,
      "relate": 1983,
      "cope": 1984,
      "dark": 1985,
      "motivation": 1986,
      "ans": 1987,
      "birth": 1988,
      "terrified": 1989,
      "rush": 1990,
      "cares": 1991,
      "speak": 1992,
      "dose": 1993,
      "thank": 1994,
      "anyway": 1995,
      "HA": 1996,
      "convinc": 1997,
      "embarr": 1998,
      "coho": 1999,
      "16": 2000,
      "god": 2001,
      ".\"": 2002,
      "along": 2003,
      "physically": 2004,
      "trauma": 2005,
      "ped": 2006,
      "yesterday": 2007,
      "realized": 2008,
      "lives": 2009,
      "ger": 2010,
      "seriously": 2011,
      "husband": 2012,
      "selves": 2013,
      "upset": 2014,
      "ional": 2015,
      "treatment": 2016,
      "ial": 2017,
      "mine": 2018,
      "lack": 2019,
      "chance": 2020,
      "luck": 2021,
      "dog": 2022,
      "doctors": 2023,
      "itely": 2024,
      "moving": 2025,
      "gress": 2026,
      "realize": 2027,
      "wouldn": 2028,
      "Has": 2029,
      "rep": 2030,
      "bul": 2031,
      "effects": 2032,
      "illed": 2033,
      "cant": 2034,
      "AL": 2035,
      "front": 2036,
      "conversation": 2037,
      "date": 2038,
      "Bipolar": 2039,
      "awful": 2040,
      "walk": 2041,
      "Anxi": 2042,
      "water": 2043,
      "country": 2044,
      "vor": 2045,
      "skin": 2046,
      "nat": 2047,
      "alcoho": 2048,
      "music": 2049,
      "lau": 2050,
      "ship": 2051,
      "gain": 2052,
      "lin": 2053,
      "eventually": 2054,
      "burden": 2055,
      "50": 2056,
      "lied": 2057,
      "failure": 2058,
      "air": 2059,
      "ford": 2060,
      "fair": 2061,
      "caused": 2062,
      "11": 2063,
      "broken": 2064,
      "gram": 2065,
      "22": 2066,
      "lay": 2067,
      "empty": 2068,
      "headac": 2069,
      "became": 2070,
      "damn": 2071,
      "acting": 2072,
      "anno": 2073,
      "People": 2074,
      "definitely": 2075,
      "several": 2076,
      "uine": 2077,
      "drink": 2078,
      "ular": 2079,
      "flu": 2080,
      "frustr": 2081,
      "cap": 2082,
      "wan": 2083,
      "gonna": 2084,
      "heard": 2085,
      "looked": 2086,
      "likely": 2087,
      "grand": 2088,
      "multi": 2089,
      "char": 2090,
      "afford": 2091,
      "17": 2092,
      "dep": 2093,
      "genuine": 2094,
      "amictal": 2095,
      "Anxiety": 2096,
      "Hey": 2097,
      "helps": 2098,
      "logist": 2099,
      "ye": 2100,
      "atten": 2101,
      "finish": 2102,
      "havi": 2103,
      "ture": 2104,
      "against": 2105,
      "suggest": 2106,
      "ross": 2107,
      "jud": 2108,
      "notice": 2109,
      "convinced": 2110,
      "thium": 2111,
      "www": 2112,
      "childhood": 2113,
      "duc": 2114,
      "arm": 2115,
      "must": 2116,
      "exer": 2117,
      "ris": 2118,
      "addic": 2119,
      "dle": 2120,
      "leaving": 2121,
      "works": 2122,
      "whether": 2123,
      "ends": 2124,
      "abuse": 2125,
      "decis": 2126,
      "hob": 2127,
      "Because": 2128,
      "Ill": 2129,
      "cas": 2130,
      "meaning": 2131,
      "tw": 2132,
      "ages": 2133,
      "takes": 2134,
      "commit": 2135,
      "forever": 2136,
      "weak": 2137,
      "clear": 2138,
      "drinking": 2139,
      "changed": 2140,
      "----": 2141,
      "sucks": 2142,
      "fault": 2143,
      "affect": 2144,
      "dition": 2145,
      "reality": 2146,
      "St": 2147,
      "stra": 2148,
      "versity": 2149,
      "izing": 2150,
      "laugh": 2151,
      "ben": 2152,
      "lon": 2153,
      "dra": 2154,
      "gl": 2155,
      "cycle": 2156,
      "expect": 2157,
      "exact": 2158,
      "exhausted": 2159,
      "ding": 2160,
      "descri": 2161,
      "trouble": 2162,
      "behavi": 2163,
      "ild": 2164,
      "whenever": 2165,
      "21": 2166,
      "cat": 2167,
      "vir": 2168,
      "needs": 2169,
      "profess": 2170,
      "dent": 2171,
      "thetic": 2172,
      "shitty": 2173,
      "continue": 2174,
      "sum": 2175,
      "immedi": 2176,
      "dire": 2177,
      "suddenly": 2178,
      "neck": 2179,
      "kinda": 2180,
      "exerc": 2181,
      "multiple": 2182,
      "ances": 2183,
      "attention": 2184,
      "drugs": 2185,
      "process": 2186,
      "bc": 2187,
      "Everything": 2188,
      "Today": 2189,
      "Sorry": 2190,
      "uncomfortable": 2191,
      "mad": 2192,
      "miserable": 2193,
      "medical": 2194,
      "Hello": 2195,
      "ail": 2196,
      "throw": 2197,
      "ors": 2198,
      "towards": 2199,
      "build": 2200,
      "perfect": 2201,
      "huge": 2202,
      "sounds": 2203,
      "coun": 2204,
      "rate": 2205,
      "pati": 2206,
      "avpd": 2207,
      "worrying": 2208,
      "answer": 2209,
      "wer": 2210,
      "cting": 2211,
      "gradu": 2212,
      "del": 2213,
      "ational": 2214,
      "actions": 2215,
      "hole": 2216,
      "disease": 2217,
      "watching": 2218,
      "hopeless": 2219,
      "ron": 2220,
      "relax": 2221,
      "ON": 2222,
      "fy": 2223,
      "reje": 2224,
      "till": 2225,
      "eye": 2226,
      "born": 2227,
      "means": 2228,
      "example": 2229,
      "fit": 2230,
      "sib": 2231,
      "book": 2232,
      "incl": 2233,
      "painful": 2234,
      "appro": 2235,
      "none": 2236,
      "lling": 2237,
      "despite": 2238,
      "except": 2239,
      "25": 2240,
      "experiencing": 2241,
      "playing": 2242,
      "tu": 2243,
      "thre": 2244,
      "hun": 2245,
      "jobs": 2246,
      "reasons": 2247,
      "hoping": 2248,
      "slowly": 2249,
      "sil": 2250,
      "happiness": 2251,
      "present": 2252,
      "keeps": 2253,
      "Go": 2254,
      "forget": 2255,
      "vic": 2256,
      "Idk": 2257,
      "woke": 2258,
      "bing": 2259,
      "somehow": 2260,
      "pose": 2261,
      "thinks": 2262,
      "research": 2263,
      "ero": 2264,
      "questions": 2265,
      "intense": 2266,
      "near": 2267,
      "pie": 2268,
      "pills": 2269,
      "Sh": 2270,
      "yed": 2271,
      "wife": 2272,
      "ceive": 2273,
      "throat": 2274,
      "aking": 2275,
      "non": 2276,
      "arent": 2277,
      "middle": 2278,
      "known": 2279,
      "games": 2280,
      "tern": 2281,
      "student": 2282,
      "tips": 2283,
      "putting": 2284,
      "tail": 2285,
      "mic": 2286,
      "asses": 2287,
      "mix": 2288,
      "career": 2289,
      "restless": 2290,
      "alcohol": 2291,
      "reco": 2292,
      "ram": 2293,
      "psych": 2294,
      "attempt": 2295,
      "unk": 2296,
      "Since": 2297,
      "distr": 2298,
      "twi": 2299,
      "beat": 2300,
      "common": 2301,
      "ctive": 2302,
      "ring": 2303,
      "helping": 2304,
      "learn": 2305,
      "tonight": 2306,
      "dou": 2307,
      "shut": 2308,
      "freaking": 2309,
      "seemed": 2310,
      "tra": 2311,
      "looks": 2312,
      "AAAAAAAAAAAAAAAAAAAAAAAAAAAAAAAAAAAAAAAAAAAAAAAAAAAAAAAAAAAAAAAA": 2313,
      "community": 2314,
      "Stre": 2315,
      "goog": 2316,
      "shame": 2317,
      "jump": 2318,
      "igno": 2319,
      "wanna": 2320,
      "ele": 2321,
      "desper": 2322,
      "abusive": 2323,
      "term": 2324,
      "Am": 2325,
      "spect": 2326,
      "remind": 2327,
      "OU": 2328,
      "guilty": 2329,
      "redi": 2330,
      "finding": 2331,
      "failed": 2332,
      "buy": 2333,
      "kills": 2334,
      "tests": 2335,
      "ption": 2336,
      "ith": 2337,
      "older": 2338,
      "aging": 2339,
      "dating": 2340,
      "TS": 2341,
      "asleep": 2342,
      "hot": 2343,
      "acted": 2344,
      "heav": 2345,
      "woman": 2346,
      "slight": 2347,
      "paran": 2348,
      "tend": 2349,
      "useless": 2350,
      "sexual": 2351,
      "figure": 2352,
      "fection": 2353,
      "themselves": 2354,
      "sitting": 2355,
      "easier": 2356,
      "bother": 2357,
      "oh": 2358,
      "dreams": 2359,
      "insurance": 2360,
      "14": 2361,
      "regre": 2362,
      "space": 2363,
      "aren": 2364,
      "dist": 2365,
      "anybody": 2366,
      "genuinely": 2367,
      "straight": 2368,
      "produc": 2369,
      "Life": 2370,
      "ground": 2371,
      "breath": 2372,
      "xic": 2373,
      "__": 2374,
      "worthless": 2375,
      "NO": 2376,
      "medications": 2377,
      "opin": 2378,
      "proper": 2379,
      "imply": 2380,
      "incredi": 2381,
      "university": 2382,
      "confused": 2383,
      "ears": 2384,
      "however": 2385,
      "ded": 2386,
      "Last": 2387,
      "hurting": 2388,
      "causing": 2389,
      "improve": 2390,
      "impossible": 2391,
      "ST": 2392,
      "within": 2393,
      "account": 2394,
      "interested": 2395,
      "sat": 2396,
      "immediately": 2397,
      "God": 2398,
      "rap": 2399,
      "prescribed": 2400,
      "easily": 2401,
      "harder": 2402,
      "prac": 2403,
      "purpose": 2404,
      "ency": 2405,
      "unable": 2406,
      "mally": 2407,
      "stem": 2408,
      "keeping": 2409,
      "progress": 2410,
      "hands": 2411,
      "cking": 2412,
      "teen": 2413,
      "ising": 2414,
      "degre": 2415,
      "ket": 2416,
      "badly": 2417,
      "passed": 2418,
      "summer": 2419,
      "tur": 2420,
      "patient": 2421,
      "situations": 2422,
      "began": 2423,
      "stressful": 2424,
      "symptom": 2425,
      "wise": 2426,
      "apartment": 2427,
      "medicine": 2428,
      "musc": 2429,
      "simply": 2430,
      "continu": 2431,
      "obviously": 2432,
      "Stress": 2433,
      "Feeling": 2434,
      "inst": 2435,
      "outh": 2436,
      "becoming": 2437,
      "Nothing": 2438,
      "flo": 2439,
      "gro": 2440,
      "rant": 2441,
      "beaut": 2442,
      "driving": 2443,
      "selfish": 2444,
      "exactly": 2445,
      "cure": 2446,
      "imagine": 2447,
      "bal": 2448,
      "rac": 2449,
      "org": 2450,
      "falling": 2451,
      "os": 2452,
      "weed": 2453,
      "win": 2454,
      "amaz": 2455,
      "finan": 2456,
      "esca": 2457,
      "yes": 2458,
      "asks": 2459,
      "door": 2460,
      "helpful": 2461,
      "tenti": 2462,
      "dumb": 2463,
      "chat": 2464,
      "scre": 2465,
      "igh": 2466,
      "effort": 2467,
      "Ex": 2468,
      "ably": 2469,
      "express": 2470,
      "gives": 2471,
      "lithium": 2472,
      "ude": 2473,
      "somewhere": 2474,
      "ade": 2475,
      "gust": 2476,
      "adult": 2477,
      "voice": 2478,
      "desi": 2479,
      "regard": 2480,
      "nause": 2481,
      ":(": 2482,
      "ied": 2483,
      "appreciated": 2484,
      "condition": 2485,
      "emplo": 2486,
      "birthday": 2487,
      "train": 2488,
      "walking": 2489,
      "simple": 2490,
      "breathing": 2491,
      "nu": 2492,
      "wear": 2493,
      "uro": 2494,
      "potenti": 2495,
      "depressants": 2496,
      "attr": 2497,
      "touch": 2498,
      "ME": 2499,
      "ba": 2500,
      "running": 2501,
      "ics": 2502,
      "Have": 2503,
      "fortun": 2504,
      "vive": 2505,
      "joke": 2506,
      "emotionally": 2507,
      "increa": 2508,
      "assu": 2509,
      "hyper": 2510,
      "Being": 2511,
      "bs": 2512,
      "treated": 2513,
      "switch": 2514,
      "Ch": 2515,
      "bat": 2516,
      "mail": 2517,
      "Anyway": 2518,
      "23": 2519,
      "note": 2520,
      "blame": 2521,
      "\",": 2522,
      "ularly": 2523,
      "Should": 2524,
      "survive": 2525,
      "pub": 2526,
      "sens": 2527,
      "learned": 2528,
      "Un": 2529,
      "tally": 2530,
      "nearly": 2531,
      "psychotic": 2532,
      "ugly": 2533,
      "quiet": 2534,
      "round": 2535,
      "thanks": 2536,
      "poor": 2537,
      "ortun": 2538,
      "overwhelmed": 2539,
      "twice": 2540,
      "ign": 2541,
      "loss": 2542,
      "pho": 2543,
      "lived": 2544,
      "quickly": 2545,
      "idence": 2546,
      "natur": 2547,
      "repe": 2548,
      "communic": 2549,
      "skills": 2550,
      "women": 2551,
      ".)": 2552,
      "bies": 2553,
      "although": 2554,
      "destro": 2555,
      "AV": 2556,
      "parti": 2557,
      "aling": 2558,
      "toxic": 2559,
      "star": 2560,
      "inse": 2561,
      "degree": 2562,
      "area": 2563,
      "cir": 2564,
      "connection": 2565,
      "Red": 2566,
      "SO": 2567,
      "previous": 2568,
      "history": 2569,
      "ove": 2570,
      "cip": 2571,
      "bunch": 2572,
      "ager": 2573,
      "result": 2574,
      "lan": 2575,
      "tells": 2576,
      "mare": 2577,
      "results": 2578,
      "totally": 2579,
      "normally": 2580,
      "hypomanic": 2581,
      "drug": 2582,
      "ghost": 2583,
      "sched": 2584,
      "force": 2585,
      "managed": 2586,
      "Pro": 2587,
      "movi": 2588,
      "irrit": 2589,
      "crit": 2590,
      "yeah": 2591,
      "13": 2592,
      "bear": 2593,
      "opp": 2594,
      "appreciate": 2595,
      "drunk": 2596,
      "Everyone": 2597,
      "escape": 2598,
      "ged": 2599,
      "admit": 2600,
      "necess": 2601,
      "invol": 2602,
      "frequ": 2603,
      "incredibly": 2604,
      "HD": 2605,
      "liked": 2606,
      "hanging": 2607,
      "arently": 2608,
      "PTS": 2609,
      "tim": 2610,
      "acher": 2611,
      "system": 2612,
      "Ti": 2613,
      "ian": 2614,
      "plac": 2615,
      "PTSD": 2616,
      "meant": 2617,
      "RI": 2618,
      "cli": 2619,
      "funny": 2620,
      "married": 2621,
      "media": 2622,
      "amazing": 2623,
      "burn": 2624,
      "bot": 2625,
      "gun": 2626,
      "consc": 2627,
      "partic": 2628,
      "lower": 2629,
      "apo": 2630,
      "sensit": 2631,
      "hobbies": 2632,
      "Wor": 2633,
      "chron": 2634,
      "piece": 2635,
      "missed": 2636,
      "opportun": 2637,
      "ization": 2638,
      "nightmare": 2639,
      "ALL": 2640,
      "ond": 2641,
      "fake": 2642,
      "public": 2643,
      "mouth": 2644,
      "younger": 2645,
      "guilt": 2646,
      "scream": 2647,
      "diz": 2648,
      "sle": 2649,
      "tech": 2650,
      "memories": 2651,
      "baby": 2652,
      "pains": 2653,
      "pick": 2654,
      "accident": 2655,
      "includ": 2656,
      "schedu": 2657,
      "Fuck": 2658,
      "hide": 2659,
      "nes": 2660,
      "program": 2661,
      "brought": 2662,
      "struc": 2663,
      "ose": 2664,
      "quel": 2665,
      "regret": 2666,
      "society": 2667,
      "conscious": 2668,
      "pathetic": 2669,
      "teacher": 2670,
      "suppor": 2671,
      "SS": 2672,
      "bath": 2673,
      "aught": 2674,
      "throughout": 2675,
      "minute": 2676,
      "ney": 2677,
      "planning": 2678,
      "changes": 2679,
      "ined": 2680,
      "waste": 2681,
      "ging": 2682,
      "shar": 2683,
      "doubt": 2684,
      "usual": 2685,
      "AVPD": 2686,
      "road": 2687,
      "prom": 2688,
      "anywhere": 2689,
      "surpr": 2690,
      "scary": 2691,
      "UC": 2692,
      "forced": 2693,
      "exercise": 2694,
      "ADHD": 2695,
      "activ": 2696,
      "disgust": 2697,
      "ences": 2698,
      "special": 2699,
      "ED": 2700,
      "strange": 2701,
      "waking": 2702,
      "understanding": 2703,
      "awk": 2704,
      "Po": 2705,
      "stab": 2706,
      "choice": 2707,
      "iful": 2708,
      "var": 2709,
      "ships": 2710,
      "sadness": 2711,
      "beginning": 2712,
      "daught": 2713,
      "war": 2714,
      "memory": 2715,
      "wel": 2716,
      "bout": 2717,
      "mil": 2718,
      "aly": 2719,
      "company": 2720,
      "internet": 2721,
      "awkward": 2722,
      "Dis": 2723,
      "cha": 2724,
      "pet": 2725,
      "gym": 2726,
      "busy": 2727,
      "lish": 2728,
      "weekend": 2729,
      "insane": 2730,
      "BP": 2731,
      "power": 2732,
      "lier": 2733,
      "achie": 2734,
      "receive": 2735,
      "oft": 2736,
      "qual": 2737,
      "wed": 2738,
      "fighting": 2739,
      "risk": 2740,
      "ution": 2741,
      "sides": 2742,
      "occas": 2743,
      "grade": 2744,
      "trans": 2745,
      "pal": 2746,
      "moments": 2747,
      "Con": 2748,
      "rious": 2749,
      "fur": 2750,
      "relief": 2751,
      "consist": 2752,
      "save": 2753,
      "confidence": 2754,
      "mixed": 2755,
      "load": 2756,
      "tem": 2757,
      "listening": 2758,
      "ink": 2759,
      "boo": 2760,
      "matic": 2761,
      "inform": 2762,
      "relative": 2763,
      "ideas": 2764,
      "picture": 2765,
      "trigger": 2766,
      "posting": 2767,
      "response": 2768,
      "decision": 2769,
      "bar": 2770,
      "ination": 2771,
      "city": 2772,
      "plans": 2773,
      "DR": 2774,
      "ju": 2775,
      "IV": 2776,
      "behavior": 2777,
      "cri": 2778,
      "four": 2779,
      "key": 2780,
      "existence": 2781,
      "lazy": 2782,
      "ruined": 2783,
      "proud": 2784,
      "excited": 2785,
      "inv": 2786,
      "town": 2787,
      "Most": 2788,
      "pha": 2789,
      "Ho": 2790,
      "actual": 2791,
      "tin": 2792,
      "causes": 2793,
      "lonel": 2794,
      "With": 2795,
      "annoying": 2796,
      "threat": 2797,
      "pes": 2798,
      "unt": 2799,
      ":)": 2800,
      "recomm": 2801,
      "trave": 2802,
      "ph": 2803,
      "vey": 2804,
      "coping": 2805,
      "growing": 2806,
      "vac": 2807,
      "aa": 2808,
      "chronic": 2809,
      "sli": 2810,
      "mani": 2811,
      "ures": 2812,
      "meeting": 2813,
      "ube": 2814,
      "kic": 2815,
      "itself": 2816,
      "black": 2817,
      "ze": 2818,
      "gue": 2819,
      "classes": 2820,
      "vice": 2821,
      "possibly": 2822,
      "meth": 2823,
      "lots": 2824,
      "obsess": 2825,
      "40": 2826,
      "breaking": 2827,
      "allowed": 2828,
      "embarrass": 2829,
      "mas": 2830,
      "Which": 2831,
      "grate": 2832,
      "inner": 2833,
      "project": 2834,
      "heavy": 2835,
      "fli": 2836,
      "que": 2837,
      "missing": 2838,
      "trip": 2839,
      "rief": 2840,
      "unless": 2841,
      "smoking": 2842,
      "across": 2843,
      "istic": 2844,
      "logical": 2845,
      "valid": 2846,
      "disappear": 2847,
      "further": 2848,
      "nowhere": 2849,
      "requi": 2850,
      "beautiful": 2851,
      "refer": 2852,
      "smart": 2853,
      "ior": 2854,
      "overwhelming": 2855,
      "describe": 2856,
      "Reddit": 2857,
      "ison": 2858,
      "desire": 2859,
      "send": 2860,
      "lymp": 2861,
      "headaches": 2862,
      "du": 2863,
      "hh": 2864,
      "fant": 2865,
      "chan": 2866,
      "ches": 2867,
      "ught": 2868,
      "belong": 2869,
      "pared": 2870,
      "Lamictal": 2871,
      "children": 2872,
      "consider": 2873,
      "sn": 2874,
      "professional": 2875,
      "struggled": 2876,
      "covered": 2877,
      "recogn": 2878,
      "hearing": 2879,
      "cuss": 2880,
      "information": 2881,
      "mistakes": 2882,
      "ices": 2883,
      "uses": 2884,
      "holding": 2885,
      "daughter": 2886,
      "Of": 2887,
      "aver": 2888,
      "TO": 2889,
      "gent": 2890,
      "sou": 2891,
      "acter": 2892,
      "nights": 2893,
      "pression": 2894,
      "TL": 2895,
      "asha": 2896,
      "eth": 2897,
      "detail": 2898,
      "apped": 2899,
      "bye": 2900,
      "loneliness": 2901,
      "office": 2902,
      "hab": 2903,
      "capable": 2904,
      "depend": 2905,
      "fat": 2906,
      "fell": 2907,
      "pit": 2908,
      "embarrassed": 2909,
      "himself": 2910,
      "vision": 2911,
      "mild": 2912,
      "lt": 2913,
      "knowled": 2914,
      "Ad": 2915,
      "YOU": 2916,
      "lect": 2917,
      "ashamed": 2918,
      "posts": 2919,
      "reaction": 2920,
      "complain": 2921,
      "These": 2922,
      "message": 2923,
      "number": 2924,
      "accom": 2925,
      "smile": 2926,
      "fortunately": 2927,
      "wall": 2928,
      "cowork": 2929,
      "feed": 2930,
      "drain": 2931,
      "fing": 2932,
      "concerned": 2933,
      "killed": 2934,
      "mass": 2935,
      "lucky": 2936,
      "rout": 2937,
      "tit": 2938,
      "ared": 2939,
      "considered": 2940,
      "Over": 2941,
      "earlier": 2942,
      "usion": 2943,
      "staying": 2944,
      "apolog": 2945,
      "pleas": 2946,
      "mum": 2947,
      "starts": 2948,
      "spot": 2949,
      "Are": 2950,
      "drop": 2951,
      "triggered": 2952,
      "yout": 2953,
      "shot": 2954,
      "atic": 2955,
      "subreddit": 2956,
      "Me": 2957,
      "herself": 2958,
      "draw": 2959,
      "learning": 2960,
      "First": 2961,
      "cing": 2962,
      "stories": 2963,
      "Recently": 2964,
      "interview": 2965,
      "path": 2966,
      "sl": 2967,
      "tom": 2968,
      "smoke": 2969,
      "developed": 2970,
      "Did": 2971,
      "breathe": 2972,
      "antic": 2973,
      "viol": 2974,
      "truth": 2975,
      "Help": 2976,
      "benef": 2977,
      "cus": 2978,
      "por": 2979,
      "grateful": 2980,
      "damage": 2981,
      "regular": 2982,
      "homeless": 2983,
      "caring": 2984,
      "sensitive": 2985,
      "fective": 2986,
      "anyways": 2987,
      "clin": 2988,
      "visit": 2989,
      "Man": 2990,
      "bull": 2991,
      "including": 2992,
      "danger": 2993,
      "Su": 2994,
      "ric": 2995,
      "checked": 2996,
      "offer": 2997,
      "favor": 2998,
      "calling": 2999,
      "hypomania": 3000,
      "logy": 3001,
      "poli": 3002,
      "comment": 3003,
      "willing": 3004,
      "studying": 3005,
      "cru": 3006,
      "vit": 3007,
      "friendship": 3008,
      "ather": 3009,
      "ition": 3010,
      "bio": 3011,
      "properly": 3012,
      "spending": 3013,
      "disappoint": 3014,
      "Mon": 3015,
      "topic": 3016,
      "covid": 3017,
      "prote": 3018,
      "paranoid": 3019,
      "mentioned": 3020,
      "loving": 3021,
      "judge": 3022,
      "shower": 3023,
      "breakdown": 3024,
      "supportive": 3025,
      "spiral": 3026,
      "SE": 3027,
      "loud": 3028,
      "sun": 3029,
      "frustrated": 3030,
      "wro": 3031,
      "ony": 3032,
      "medit": 3033,
      "jour": 3034,
      "paying": 3035,
      "expected": 3036,
      "pm": 3037,
      "bf": 3038,
      "loves": 3039,
      "cried": 3040,
      "pat": 3041,
      "specific": 3042,
      "Having": 3043,
      "headache": 3044,
      "minor": 3045,
      "land": 3046,
      "ues": 3047,
      "sts": 3048,
      "stood": 3049,
      "successful": 3050,
      "ift": 3051,
      "considering": 3052,
      "hasn": 3053,
      "basic": 3054,
      "options": 3055,
      "bathroom": 3056,
      "wrote": 3057,
      "hated": 3058,
      "VER": 3059,
      "tool": 3060,
      "signific": 3061,
      "cool": 3062,
      "ds": 3063,
      "onment": 3064,
      "fee": 3065,
      "party": 3066,
      "utter": 3067,
      "?\"": 3068,
      "thes": 3069,
      "comments": 3070,
      "avoidant": 3071,
      "shouldn": 3072,
      "neuro": 3073,
      "difference": 3074,
      "generally": 3075,
      "grades": 3076,
      "UCK": 3077,
      "init": 3078,
      "pregn": 3079,
      "surger": 3080,
      "gas": 3081,
      "ilities": 3082,
      "courage": 3083,
      "BPD": 3084,
      "Mo": 3085,
      "educ": 3086,
      "direct": 3087,
      "dee": 3088,
      "posted": 3089,
      "antidepressants": 3090,
      "boring": 3091,
      "THE": 3092,
      "soul": 3093,
      "medicated": 3094,
      "ensive": 3095,
      "apparently": 3096,
      "seme": 3097,
      "crash": 3098,
      "dram": 3099,
      "advance": 3100,
      "freak": 3101,
      "conversations": 3102,
      "extra": 3103,
      "ID": 3104,
      "lies": 3105,
      "boss": 3106,
      "tors": 3107,
      "Co": 3108,
      "sive": 3109,
      "female": 3110,
      "position": 3111,
      "following": 3112,
      "AT": 3113,
      "card": 3114,
      "otherwise": 3115,
      "seek": 3116,
      "trapped": 3117,
      "Ne": 3118,
      "choose": 3119,
      "decide": 3120,
      "sal": 3121,
      "argu": 3122,
      "somewhat": 3123,
      "curious": 3124,
      "concern": 3125,
      "vity": 3126,
      "turning": 3127,
      "slept": 3128,
      "lamictal": 3129,
      "nia": 3130,
      "rin": 3131,
      "ened": 3132,
      "rejection": 3133,
      "dry": 3134,
      "abused": 3135,
      "--------": 3136,
      "infection": 3137,
      "dies": 3138,
      "oloft": 3139,
      "letting": 3140,
      "racing": 3141,
      "langu": 3142,
      "bought": 3143,
      "envir": 3144,
      "dow": 3145,
      "track": 3146,
      "song": 3147,
      "mate": 3148,
      "socially": 3149,
      "dropped": 3150,
      "significant": 3151,
      ".**": 3152,
      "ran": 3153,
      "rarely": 3154,
      "arily": 3155,
      "verse": 3156,
      "tight": 3157,
      "loser": 3158,
      "shake": 3159,
      "uda": 3160,
      "bullshit": 3161,
      "nur": 3162,
      "ball": 3163,
      "team": 3164,
      "paid": 3165,
      "character": 3166,
      "levels": 3167,
      "catch": 3168,
      "isolated": 3169,
      "avail": 3170,
      "hopefully": 3171,
      "sibling": 3172,
      "interesting": 3173,
      "potential": 3174,
      "CT": 3175,
      "goals": 3176,
      "speaking": 3177,
      "building": 3178,
      "legs": 3179,
      "likes": 3180,
      "convince": 3181,
      "average": 3182,
      "tough": 3183,
      "semester": 3184,
      "ande": 3185,
      "paper": 3186,
      "hung": 3187,
      "fantas": 3188,
      "email": 3189,
      "suck": 3190,
      "dio": 3191,
      "mbers": 3192,
      "onto": 3193,
      "IS": 3194,
      "fati": 3195,
      "28": 3196,
      "slightly": 3197,
      "particip": 3198,
      "method": 3199,
      "atuda": 3200,
      "amo": 3201,
      "achieve": 3202,
      "ises": 3203,
      "tran": 3204,
      "clothes": 3205,
      "cuz": 3206,
      "FUCK": 3207,
      "connected": 3208,
      "gle": 3209,
      "hall": 3210,
      "ceed": 3211,
      "romantic": 3212,
      "scar": 3213,
      "26": 3214,
      "prevent": 3215,
      "une": 3216,
      "calls": 3217,
      "ski": 3218,
      "Good": 3219,
      "closer": 3220,
      "muscle": 3221,
      "ially": 3222,
      "avoiding": 3223,
      "above": 3224,
      "news": 3225,
      "survey": 3226,
      "biggest": 3227,
      "bru": 3228,
      "divor": 3229,
      "aim": 3230,
      "pointless": 3231,
      "develop": 3232,
      "surgery": 3233,
      "gt": 3234,
      "clearly": 3235,
      "pushing": 3236,
      "OC": 3237,
      "respond": 3238,
      "return": 3239,
      "chon": 3240,
      "responsib": 3241,
      "sore": 3242,
      "offic": 3243,
      "scen": 3244,
      "hid": 3245,
      "forgot": 3246,
      "ridic": 3247,
      "total": 3248,
      "edge": 3249,
      "overcome": 3250,
      "rect": 3251,
      "crush": 3252,
      "haha": 3253,
      "bullied": 3254,
      "andemic": 3255,
      "ðŸ": 3256,
      "athy": 3257,
      "girls": 3258,
      "Don": 3259,
      "cember": 3260,
      "From": 3261,
      "lump": 3262,
      "zero": 3263,
      "While": 3264,
      "knowledge": 3265,
      "uary": 3266,
      "large": 3267,
      "lun": 3268,
      "ray": 3269,
      "ride": 3270,
      "teeth": 3271,
      "changing": 3272,
      "offee": 3273,
      "urge": 3274,
      "ado": 3275,
      "respect": 3276,
      "places": 3277,
      "pandemic": 3278,
      "yond": 3279,
      "Anyways": 3280,
      "addiction": 3281,
      "dread": 3282,
      "everybody": 3283,
      "cling": 3284,
      "pray": 3285,
      "priv": 3286,
      "deeply": 3287,
      "movie": 3288,
      "Hope": 3289,
      "events": 3290,
      "desperate": 3291,
      "Oh": 3292,
      "stressing": 3293,
      "organ": 3294,
      "artic": 3295,
      "figured": 3296,
      "ribut": 3297,
      "seeking": 3298,
      "encour": 3299,
      "ler": 3300,
      "members": 3301,
      "pull": 3302,
      "sty": 3303,
      "stic": 3304,
      "aband": 3305,
      "maint": 3306,
      "maintain": 3307,
      "tears": 3308,
      "suffered": 3309,
      "ky": 3310,
      "besides": 3311,
      "member": 3312,
      "white": 3313,
      "Per": 3314,
      "hates": 3315,
      "chondri": 3316,
      "coffee": 3317,
      "alot": 3318,
      "secre": 3319,
      "eem": 3320,
      "ines": 3321,
      "solution": 3322,
      "police": 3323,
      "itis": 3324,
      "Loo": 3325,
      "agree": 3326,
      "ulous": 3327,
      "comput": 3328,
      "Nobody": 3329,
      "AAAAAAAAAAAAAAAAAAAAAAAAAAAAAAAAAAAAAAAAAAAAAAAAAAAAAAAAAAAAAAAAAAAAAAAAAAAAAAAAAAAAAAAAAAAAAAAAAAAAAAAAAAAAAAAAAAAAAAAAAAAAAAAA": 3330,
      "ible": 3331,
      "famili": 3332,
      "sion": 3333,
      "rying": 3334,
      "existing": 3335,
      "streng": 3336,
      "title": 3337,
      "thy": 3338,
      "messed": 3339,
      "occur": 3340,
      "minim": 3341,
      "confident": 3342,
      "fears": 3343,
      "grew": 3344,
      "shaking": 3345,
      "seconds": 3346,
      "OR": 3347,
      "anuary": 3348,
      "intro": 3349,
      "productive": 3350,
      "diet": 3351,
      "psychologist": 3352,
      "ignore": 3353,
      "arms": 3354,
      "mainly": 3355,
      "esteem": 3356,
      "failing": 3357,
      "schedule": 3358,
      "friendships": 3359,
      "cutting": 3360,
      "Could": 3361,
      "Ever": 3362,
      "interaction": 3363,
      "ingly": 3364,
      "aches": 3365,
      "practic": 3366,
      "Med": 3367,
      "fill": 3368,
      "???": 3369,
      "environment": 3370,
      "New": 3371,
      "lion": 3372,
      "terms": 3373,
      "final": 3374,
      "relig": 3375,
      "photo": 3376,
      "ges": 3377,
      "perman": 3378,
      "reached": 3379,
      "Here": 3380,
      "cough": 3381,
      "language": 3382,
      "io": 3383,
      "financial": 3384,
      "mirr": 3385,
      "store": 3386,
      "impul": 3387,
      "riday": 3388,
      "overall": 3389,
      "sport": 3390,
      "exhausting": 3391,
      "pound": 3392,
      "som": 3393,
      "feet": 3394,
      "disability": 3395,
      "triggers": 3396,
      "nose": 3397,
      "Right": 3398,
      "rn": 3399,
      "gger": 3400,
      "business": 3401,
      "available": 3402,
      ".”": 3403,
      "five": 3404,
      "recent": 3405,
      "Been": 3406,
      "suggestions": 3407,
      "Monday": 3408,
      "mechan": 3409,
      "apro": 3410,
      "acking": 3411,
      "nausea": 3412,
      "Christ": 3413,
      "OCD": 3414,
      "prefer": 3415,
      "EN": 3416,
      "interests": 3417,
      "Dr": 3418,
      "bre": 3419,
      "value": 3420,
      "beyond": 3421,
      "valu": 3422,
      "poll": 3423,
      "provide": 3424,
      "rejected": 3425,
      "awake": 3426,
      "ress": 3427,
      "plus": 3428,
      "fairly": 3429,
      "recover": 3430,
      "alous": 3431,
      "roll": 3432,
      "stayed": 3433,
      "videos": 3434,
      "dizzy": 3435,
      "table": 3436,
      "zing": 3437,
      "attempted": 3438,
      "goal": 3439,
      "consu": 3440,
      "content": 3441,
      "signs": 3442,
      "computer": 3443,
      "strength": 3444,
      "law": 3445,
      "pis": 3446,
      "intr": 3447,
      "parts": 3448,
      "Health": 3449,
      "sensation": 3450,
      "LE": 3451,
      "fil": 3452,
      "ively": 3453,
      "disappointed": 3454,
      "27": 3455,
      "decent": 3456,
      "strang": 3457,
      "opinion": 3458,
      "lymph": 3459,
      "Ok": 3460,
      "pill": 3461,
      "passion": 3462,
      "nar": 3463,
      "ening": 3464,
      "cris": 3465,
      "periods": 3466,
      "BT": 3467,
      "Will": 3468,
      "stick": 3469,
      "somebody": 3470,
      "motivated": 3471,
      "dealt": 3472,
      "swings": 3473,
      "chiz": 3474,
      "box": 3475,
      "II": 3476,
      "bility": 3477,
      "cup": 3478,
      "discuss": 3479,
      "writ": 3480,
      "deter": 3481,
      "sequ": 3482,
      "leaves": 3483,
      "bag": 3484,
      "street": 3485,
      "worries": 3486,
      "gging": 3487,
      "explo": 3488,
      "bel": 3489,
      "fiel": 3490,
      "ining": 3491,
      "coward": 3492,
      "education": 3493,
      "Eng": 3494,
      "etite": 3495,
      "fire": 3496,
      "mirror": 3497,
      "About": 3498,
      "gf": 3499,
      "yell": 3500,
      "higher": 3501,
      "psychosis": 3502,
      "accepted": 3503,
      "Depression": 3504,
      "specif": 3505,
      "dev": 3506,
      "six": 3507,
      "Had": 3508,
      "tasks": 3509,
      "functioning": 3510,
      "attractive": 3511,
      "jealous": 3512,
      "rab": 3513,
      "disorders": 3514,
      "glad": 3515,
      "access": 3516,
      "laying": 3517,
      "Vie": 3518,
      "walked": 3519,
      "correct": 3520,
      "bling": 3521,
      "rage": 3522,
      "heal": 3523,
      "based": 3524,
      "repeat": 3525,
      "appetite": 3526,
      "kicked": 3527,
      "View": 3528,
      "EVER": 3529,
      "haps": 3530,
      "AND": 3531,
      "prior": 3532,
      "various": 3533,
      "pressed": 3534,
      "struggles": 3535,
      "connect": 3536,
      "opportunity": 3537,
      "pun": 3538,
      "Get": 3539,
      "indi": 3540,
      "hypochondri": 3541,
      "finished": 3542,
      "py": 3543,
      "lim": 3544,
      "acy": 3545,
      "sible": 3546,
      "showed": 3547,
      "forgive": 3548,
      "ahead": 3549,
      "rain": 3550,
      "deb": 3551,
      "debt": 3552,
      "background": 3553,
      "insecure": 3554,
      "routine": 3555,
      "crisis": 3556,
      "January": 3557,
      "answers": 3558,
      "AM": 3559,
      "brush": 3560,
      "elled": 3561,
      "wonderful": 3562,
      "bills": 3563,
      "oun": 3564,
      "sci": 3565,
      "books": 3566,
      "60": 3567,
      "brief": 3568,
      "fle": 3569,
      "earth": 3570,
      "nature": 3571,
      "minal": 3572,
      "tempor": 3573,
      "floor": 3574,
      "employ": 3575,
      "wash": 3576,
      "letter": 3577,
      "steps": 3578,
      "IL": 3579,
      "iling": 3580,
      "regularly": 3581,
      "ignored": 3582,
      "pattern": 3583,
      "Was": 3584,
      "decisions": 3585,
      "vacation": 3586,
      "habits": 3587,
      "US": 3588,
      "hat": 3589,
      "contr": 3590,
      "mates": 3591,
      "resour": 3592,
      "wasting": 3593,
      "critic": 3594,
      "everytime": 3595,
      "aching": 3596,
      "distract": 3597,
      "fying": 3598,
      "surround": 3599,
      "tumor": 3600,
      "holi": 3601,
      "wasted": 3602,
      "screaming": 3603,
      "Looking": 3604,
      "checking": 3605,
      "burning": 3606,
      "bored": 3607,
      "stantly": 3608,
      "natural": 3609,
      "ense": 3610,
      "affected": 3611,
      "Poll": 3612,
      "fresh": 3613,
      "Who": 3614,
      "ache": 3615,
      "everywhere": 3616,
      "effective": 3617,
      "interact": 3618,
      "planned": 3619,
      "phase": 3620,
      "MS": 3621,
      "December": 3622,
      "solve": 3623,
      "necessary": 3624,
      "intention": 3625,
      "Ive": 3626,
      "gged": 3627,
      "NOT": 3628,
      "sober": 3629,
      "survi": 3630,
      "messages": 3631,
      "pushed": 3632,
      "swo": 3633,
      "90": 3634,
      "Would": 3635,
      "canc": 3636,
      "manager": 3637,
      "ridiculous": 3638,
      "foot": 3639,
      "Things": 3640,
      "crap": 3641,
      "held": 3642,
      "Someone": 3643,
      "pack": 3644,
      "closest": 3645,
      "tiny": 3646,
      "ffe": 3647,
      "odd": 3648,
      "bia": 3649,
      "link": 3650,
      "EL": 3651,
      "Zoloft": 3652,
      "tf": 3653,
      "cep": 3654,
      "stopping": 3655,
      "____": 3656,
      "dependent": 3657,
      "butrin": 3658,
      "aller": 3659,
      "lines": 3660,
      "favorite": 3661,
      "disgusting": 3662,
      "received": 3663,
      "GP": 3664,
      "itive": 3665,
      "chall": 3666,
      "attach": 3667,
      "Your": 3668,
      "cost": 3669,
      "Yes": 3670,
      "scares": 3671,
      "anim": 3672,
      "compet": 3673,
      "satis": 3674,
      "style": 3675,
      "somnia": 3676,
      "nel": 3677,
      "spective": 3678,
      "sharing": 3679,
      "His": 3680,
      "cord": 3681,
      "sweet": 3682,
      "intrusive": 3683,
      "Bas": 3684,
      "context": 3685,
      "http": 3686,
      "Long": 3687,
      "pretend": 3688,
      "strangers": 3689,
      "Sero": 3690,
      "stri": 3691,
      "claim": 3692,
      "desperately": 3693,
      "\\*": 3694,
      "withdra": 3695,
      "Only": 3696,
      "google": 3697,
      "understood": 3698,
      "showing": 3699,
      "matters": 3700,
      "Suic": 3701,
      "fatigue": 3702,
      "palpit": 3703,
      "tension": 3704,
      "Goo": 3705,
      "abandon": 3706,
      "asshole": 3707,
      "During": 3708,
      "saving": 3709,
      "therapists": 3710,
      "reply": 3711,
      "manipul": 3712,
      "iest": 3713,
      "aster": 3714,
      "comb": 3715,
      "Before": 3716,
      "Where": 3717,
      "misery": 3718,
      "Yet": 3719,
      "Whenever": 3720,
      "cum": 3721,
      "dos": 3722,
      "bleed": 3723,
      "hea": 3724,
      "abdo": 3725,
      "blow": 3726,
      "cis": 3727,
      "sin": 3728,
      "ret": 3729,
      "seas": 3730,
      "separ": 3731,
      "dia": 3732,
      "understands": 3733,
      "turns": 3734,
      "traumatic": 3735,
      "gency": 3736,
      "ali": 3737,
      "field": 3738,
      "prescription": 3739,
      "distance": 3740,
      "deca": 3741,
      "?!": 3742,
      "idi": 3743,
      "relieve": 3744,
      "roof": 3745,
      "ker": 3746,
      "rad": 3747,
      "llen": 3748,
      "brings": 3749,
      "bearable": 3750,
      "filled": 3751,
      "dom": 3752,
      "adul": 3753,
      "ionally": 3754,
      "Seroquel": 3755,
      "inally": 3756,
      "cks": 3757,
      "plish": 3758,
      "drown": 3759,
      "venting": 3760,
      "excuse": 3761,
      "practice": 3762,
      "”.": 3763,
      "Basically": 3764,
      "didnt": 3765,
      "bili": 3766,
      "session": 3767,
      "emer": 3768,
      "ays": 3769,
      "rapid": 3770,
      "siblings": 3771,
      "Edit": 3772,
      "mes": 3773,
      "graduate": 3774,
      "atter": 3775,
      "web": 3776,
      "ously": 3777,
      "relatively": 3778,
      "cous": 3779,
      "oia": 3780,
      "passing": 3781,
      "ruining": 3782,
      "halluc": 3783,
      "CO": 3784,
      "gut": 3785,
      "roke": 3786,
      "evening": 3787,
      "impact": 3788,
      "snap": 3789,
      "accomplish": 3790,
      "vember": 3791,
      "unhappy": 3792,
      "overthinking": 3793,
      "expensive": 3794,
      "Disorder": 3795,
      "Never": 3796,
      "awhile": 3797,
      "rare": 3798,
      "ify": 3799,
      "sessions": 3800,
      "Need": 3801,
      "riage": 3802,
      "picked": 3803,
      "coworkers": 3804,
      "lad": 3805,
      "irm": 3806,
      "randomly": 3807,
      "battle": 3808,
      "naturally": 3809,
      "frustrating": 3810,
      "recommend": 3811,
      "ons": 3812,
      "graduated": 3813,
      "increase": 3814,
      "travel": 3815,
      "ys": 3816,
      "entially": 3817,
      "frequently": 3818,
      "AR": 3819,
      "Lately": 3820,
      "Oc": 3821,
      "ote": 3822,
      "bigger": 3823,
      "ppling": 3824,
      "embarrassing": 3825,
      "See": 3826,
      "\\-": 3827,
      "dinner": 3828,
      "schiz": 3829,
      "reassurance": 3830,
      "000": 3831,
      "pless": 3832,
      "actively": 3833,
      "English": 3834,
      "hd": 3835,
      "ents": 3836,
      "compared": 3837,
      "financially": 3838,
      "circle": 3839,
      "particular": 3840,
      "autism": 3841,
      "rup": 3842,
      "ord": 3843,
      "uced": 3844,
      "bitch": 3845,
      "throwing": 3846,
      "delus": 3847,
      "DA": 3848,
      "ech": 3849,
      "pity": 3850,
      "aming": 3851,
      "ilt": 3852,
      "closed": 3853,
      "youtube": 3854,
      "uce": 3855,
      "rude": 3856,
      "personally": 3857,
      "nesses": 3858,
      "contribut": 3859,
      "blocked": 3860,
      "creep": 3861,
      "Once": 3862,
      "destruc": 3863,
      "fired": 3864,
      "increas": 3865,
      "becomes": 3866,
      "particularly": 3867,
      "tist": 3868,
      "Let": 3869,
      "insight": 3870,
      "secret": 3871,
      "grab": 3872,
      "carry": 3873,
      "greatly": 3874,
      "counse": 3875,
      "aur": 3876,
      "intim": 3877,
      "sted": 3878,
      "habit": 3879,
      "entirely": 3880,
      "gar": 3881,
      "lasted": 3882,
      "cred": 3883,
      "sor": 3884,
      "pect": 3885,
      "drag": 3886,
      "increased": 3887,
      "pen": 3888,
      "subst": 3889,
      "hospitalized": 3890,
      "zed": 3891,
      "itude": 3892,
      "belie": 3893,
      "!!!!": 3894,
      "details": 3895,
      "tober": 3896,
      "concent": 3897,
      "directly": 3898,
      "cardio": 3899,
      "groups": 3900,
      "recovery": 3901,
      "activities": 3902,
      "palpitations": 3903,
      "idiot": 3904,
      "rock": 3905,
      "relap": 3906,
      "ignor": 3907,
      "pregnant": 3908,
      "onest": 3909,
      "drank": 3910,
      "standing": 3911,
      "Lo": 3912,
      "happier": 3913,
      "swollen": 3914,
      "recognize": 3915,
      "Qu": 3916,
      "hating": 3917,
      "nut": 3918,
      "stim": 3919,
      "intel": 3920,
      "breast": 3921,
      "specifically": 3922,
      "yo": 3923,
      "massive": 3924,
      "Latuda": 3925,
      "scan": 3926,
      "associ": 3927,
      "roo": 3928,
      "ups": 3929,
      "moods": 3930,
      "surprised": 3931,
      "templ": 3932,
      "caught": 3933,
      "migr": 3934,
      "grandma": 3935,
      "million": 3936,
      "Friday": 3937,
      "gri": 3938,
      "van": 3939,
      "flash": 3940,
      "vul": 3941,
      "lock": 3942,
      "stric": 3943,
      "subject": 3944,
      "dangerous": 3945,
      "ya": 3946,
      "shoulder": 3947,
      "apps": 3948,
      "ient": 3949,
      "sob": 3950,
      "sweat": 3951,
      "Ther": 3952,
      "sme": 3953,
      "realizing": 3954,
      "tested": 3955,
      "kis": 3956,
      "wit": 3957,
      "paranoia": 3958,
      "deeper": 3959,
      "dic": 3960,
      "aspect": 3961,
      "rot": 3962,
      "possibility": 3963,
      "Her": 3964,
      "Still": 3965,
      "aline": 3966,
      "auto": 3967,
      "Abili": 3968,
      "vil": 3969,
      "insomnia": 3970,
      "useful": 3971,
      "shift": 3972,
      "realised": 3973,
      "shows": 3974,
      "swear": 3975,
      "stabili": 3976,
      "Abilify": 3977,
      "assa": 3978,
      "core": 3979,
      "perspective": 3980,
      "ideation": 3981,
      "adhd": 3982,
      "shy": 3983,
      "hadn": 3984,
      "watched": 3985,
      "create": 3986,
      "legit": 3987,
      "concl": 3988,
      "Honest": 3989,
      "ican": 3990,
      "agre": 3991,
      "bump": 3992,
      "LO": 3993,
      "hallucin": 3994,
      "Take": 3995,
      "wrist": 3996,
      "hitting": 3997,
      "crippling": 3998,
      "em": 3999,
      "nightmares": 4000,
      "kick": 4001,
      "sually": 4002,
      "specially": 4003,
      "succeed": 4004,
      "direction": 4005,
      "regarding": 4006,
      "responsible": 4007,
      "majority": 4008,
      "Cur": 4009,
      "Usually": 4010,
      "hey": 4011,
      "exams": 4012,
      "forms": 4013,
      "destroyed": 4014,
      "mir": 4015,
      "Thought": 4016,
      "talks": 4017,
      "marriage": 4018,
      "isolation": 4019,
      "assign": 4020,
      "fulf": 4021,
      "emergency": 4022,
      "consequ": 4023,
      "Lithium": 4024,
      "texted": 4025,
      "Honestly": 4026,
      "stroke": 4027,
      "sero": 4028,
      "cleaning": 4029,
      "circum": 4030,
      "Yesterday": 4031,
      "rs": 4032,
      "third": 4033,
      "cast": 4034,
      "pursu": 4035,
      "individ": 4036,
      "sour": 4037,
      "upon": 4038,
      "discomfort": 4039,
      "tics": 4040,
      "shared": 4041,
      "addicted": 4042,
      "ague": 4043,
      "hardly": 4044,
      "silly": 4045,
      "sses": 4046,
      "ory": 4047,
      "appointments": 4048,
      "nic": 4049,
      "ature": 4050,
      "loc": 4051,
      "sexually": 4052,
      "isolate": 4053,
      "illnesses": 4054,
      "goodbye": 4055,
      "November": 4056,
      "Doc": 4057,
      "meditation": 4058,
      "amotri": 4059,
      "?)": 4060,
      "focused": 4061,
      "mand": 4062,
      "unbearable": 4063,
      "tember": 4064,
      "credit": 4065,
      "react": 4066,
      "overly": 4067,
      "realise": 4068,
      "assume": 4069,
      "encourage": 4070,
      "anax": 4071,
      "nother": 4072,
      "attempts": 4073,
      "By": 4074,
      "ased": 4075,
      "scare": 4076,
      "depressing": 4077,
      "pical": 4078,
      "spoke": 4079,
      "screen": 4080,
      "80": 4081,
      "beli": 4082,
      "grocer": 4083,
      "employed": 4084,
      "resources": 4085,
      "Bo": 4086,
      "gine": 4087,
      "below": 4088,
      "hug": 4089,
      "suppose": 4090,
      "googling": 4091,
      "withdrawal": 4092,
      "MY": 4093,
      "rele": 4094,
      "fecting": 4095,
      "fog": 4096,
      "cies": 4097,
      "ziness": 4098,
      "cele": 4099,
      "seroquel": 4100,
      "ki": 4101,
      "oph": 4102,
      "severely": 4103,
      "App": 4104,
      "nal": 4105,
      "roid": 4106,
      "trash": 4107,
      "Although": 4108,
      "created": 4109,
      "cording": 4110,
      "Start": 4111,
      "threw": 4112,
      "ery": 4113,
      "ception": 4114,
      "setting": 4115,
      "followed": 4116,
      "private": 4117,
      "Gu": 4118,
      "thats": 4119,
      "identi": 4120,
      "def": 4121,
      "polit": 4122,
      "disappointment": 4123,
      "worthy": 4124,
      "300": 4125,
      "familiar": 4126,
      "Another": 4127,
      "essentially": 4128,
      "bottle": 4129,
      "individual": 4130,
      "site": 4131,
      "avoidance": 4132,
      "OD": 4133,
      "Other": 4134,
      "UT": 4135,
      "aid": 4136,
      "afterwards": 4137,
      "THING": 4138,
      "AS": 4139,
      "base": 4140,
      "lbs": 4141,
      "scr": 4142,
      "enjoying": 4143,
      "nife": 4144,
      "grown": 4145,
      "ror": 4146,
      "aff": 4147,
      "continued": 4148,
      "cult": 4149,
      "inju": 4150,
      "neigh": 4151,
      "ridge": 4152,
      "window": 4153,
      "nauseous": 4154,
      "narcis": 4155,
      "Sun": 4156,
      "ek": 4157,
      "race": 4158,
      "scenar": 4159,
      "knife": 4160,
      "tv": 4161,
      "2022": 4162,
      "strain": 4163,
      "meaningless": 4164,
      "dissoci": 4165,
      "communication": 4166,
      "lig": 4167,
      "agram": 4168,
      "apply": 4169,
      "Wellbutrin": 4170,
      "leads": 4171,
      "nurse": 4172,
      "involved": 4173,
      "dramatic": 4174,
      "ulty": 4175,
      "texts": 4176,
      "warning": 4177,
      "DO": 4178,
      "ading": 4179,
      "chose": 4180,
      "belief": 4181,
      "bh": 4182,
      "net": 4183,
      "fever": 4184,
      "expo": 4185,
      "contempl": 4186,
      "inevit": 4187,
      "built": 4188,
      "Current": 4189,
      "hum": 4190,
      "squ": 4191,
      "rome": 4192,
      "poison": 4193,
      "permanent": 4194,
      "saved": 4195,
      "welcome": 4196,
      "invited": 4197,
      "circumst": 4198,
      "lap": 4199,
      "warm": 4200,
      "local": 4201,
      "annoyed": 4202,
      "victim": 4203,
      "opportunities": 4204,
      "spre": 4205,
      "pretending": 4206,
      "irrational": 4207,
      "affects": 4208,
      "assault": 4209,
      "ub": 4210,
      "clue": 4211,
      "approach": 4212,
      "29": 4213,
      "Got": 4214,
      "tast": 4215,
      "torture": 4216,
      "incident": 4217,
      "balance": 4218,
      "TV": 4219,
      "gay": 4220,
      "unfortunately": 4221,
      "studies": 4222,
      "journey": 4223,
      "mble": 4224,
      "ancy": 4225,
      "llar": 4226,
      "enter": 4227,
      "ching": 4228,
      "freaked": 4229,
      "management": 4230,
      "amotrigine": 4231,
      "lab": 4232,
      "pts": 4233,
      "20s": 4234,
      "connections": 4235,
      "vulner": 4236,
      "Psy": 4237,
      "ox": 4238,
      "inal": 4239,
      "humans": 4240,
      "muscles": 4241,
      "techni": 4242,
      "Des": 4243,
      "Hy": 4244,
      "mia": 4245,
      "ilit": 4246,
      "Sc": 4247,
      "void": 4248,
      "pop": 4249,
      "frequent": 4250,
      "More": 4251,
      "/)": 4252,
      "Back": 4253,
      "Face": 4254,
      "vom": 4255,
      "sake": 4256,
      "mindset": 4257,
      "itching": 4258,
      "stimul": 4259,
      "Sep": 4260,
      "lid": 4261,
      "tras": 4262,
      "twit": 4263,
      "counter": 4264,
      "sharp": 4265,
      "argument": 4266,
      "celebr": 4267,
      "BD": 4268,
      "stat": 4269,
      "tric": 4270,
      "breaks": 4271,
      "opening": 4272,
      "!!!": 4273,
      "staring": 4274,
      "Therap": 4275,
      "acid": 4276,
      "endless": 4277,
      "bringing": 4278,
      "reck": 4279,
      "typing": 4280,
      "suggested": 4281,
      "arri": 4282,
      "hopes": 4283,
      "mote": 4284,
      "traumat": 4285,
      "Lit": 4286,
      "insul": 4287,
      "stig": 4288,
      "stair": 4289,
      "ished": 4290,
      "hatred": 4291,
      "stability": 4292,
      "ppl": 4293,
      "universe": 4294,
      "expectations": 4295,
      "temporary": 4296,
      "ene": 4297,
      "condit": 4298,
      "ndrome": 4299,
      "WH": 4300,
      "mary": 4301,
      "inve": 4302,
      "mode": 4303,
      "pulled": 4304,
      "devast": 4305,
      "¦": 4306,
      "blind": 4307,
      "mission": 4308,
      "refuse": 4309,
      "Lex": 4310,
      "wis": 4311,
      "income": 4312,
      "cruel": 4313,
      "pin": 4314,
      "border": 4315,
      "written": 4316,
      "bright": 4317,
      "panicking": 4318,
      "99": 4319,
      "cross": 4320,
      "adder": 4321,
      "cogn": 4322,
      "apine": 4323,
      "differently": 4324,
      "Going": 4325,
      "toler": 4326,
      "flight": 4327,
      "mut": 4328,
      "aint": 4329,
      "opposit": 4330,
      "block": 4331,
      "report": 4332,
      "occasionally": 4333,
      "Aug": 4334,
      "Rel": 4335,
      "eu": 4336,
      "alright": 4337,
      "beating": 4338,
      "excess": 4339,
      "communicate": 4340,
      "stops": 4341,
      "cycling": 4342,
      "opened": 4343,
      "pleasure": 4344,
      "Amer": 4345,
      "bound": 4346,
      "rd": 4347,
      "bruary": 4348,
      "raised": 4349,
      "concerns": 4350,
      "conven": 4351,
      "paraly": 4352,
      "trasound": 4353,
      "awe": 4354,
      "double": 4355,
      "jaw": 4356,
      "aded": 4357,
      "anytime": 4358,
      "upper": 4359,
      "service": 4360,
      "MRI": 4361,
      "cute": 4362,
      "instantly": 4363,
      "highly": 4364,
      "removed": 4365,
      "iron": 4366,
      "laughing": 4367,
      "Che": 4368,
      "mile": 4369,
      "pure": 4370,
      "ral": 4371,
      "ultrasound": 4372,
      "shoulders": 4373,
      "bottom": 4374,
      "YOUR": 4375,
      "Google": 4376,
      "spl": 4377,
      ".....": 4378,
      "perfectly": 4379,
      "teenager": 4380,
      "consistent": 4381,
      "October": 4382,
      "perfor": 4383,
      "painless": 4384,
      "wishing": 4385,
      "reaching": 4386,
      "activity": 4387,
      "Ye": 4388,
      "fulness": 4389,
      "restaur": 4390,
      "perhaps": 4391,
      "Soy": 4392,
      "assist": 4393,
      "SI": 4394,
      "ai": 4395,
      "analy": 4396,
      "hungry": 4397,
      "Ju": 4398,
      "vy": 4399,
      "sessed": 4400,
      "added": 4401,
      "Ser": 4402,
      "stool": 4403,
      "tear": 4404,
      "lift": 4405,
      "ified": 4406,
      "pounds": 4407,
      "HIV": 4408,
      "Uni": 4409,
      "remain": 4410,
      "dele": 4411,
      "rambling": 4412,
      "apologize": 4413,
      "opposite": 4414,
      "hits": 4415,
      "overdose": 4416,
      "shop": 4417,
      "thor": 4418,
      "stage": 4419,
      "urday": 4420,
      "spring": 4421,
      "finger": 4422,
      "August": 4423,
      "swi": 4424,
      "acade": 4425,
      "resent": 4426,
      "explained": 4427,
      "drained": 4428,
      "hiding": 4429,
      "depressant": 4430,
      "gained": 4431,
      "stronger": 4432,
      "migrain": 4433,
      "sending": 4434,
      "locked": 4435,
      "2020": 4436,
      "obser": 4437,
      "potentially": 4438,
      "Apri": 4439,
      "irl": 4440,
      "interactions": 4441,
      "crast": 4442,
      "April": 4443,
      "Trying": 4444,
      "und": 4445,
      "urs": 4446,
      "basis": 4447,
      "unhealthy": 4448,
      "affection": 4449,
      "managing": 4450,
      "searching": 4451,
      "spoken": 4452,
      "weren": 4453,
      "vices": 4454,
      "FUCKING": 4455,
      "September": 4456,
      "Lexapro": 4457,
      "task": 4458,
      "points": 4459,
      "mature": 4460,
      "voices": 4461,
      "decade": 4462,
      "ptsd": 4463,
      "nb": 4464,
      "adjust": 4465,
      "science": 4466,
      "March": 4467,
      "Ob": 4468,
      "wind": 4469,
      "2021": 4470,
      "officially": 4471,
      "antipsychotic": 4472,
      "difficulty": 4473,
      "movies": 4474,
      "Suicide": 4475,
      "tbh": 4476,
      "raise": 4477,
      "loose": 4478,
      "noticing": 4479,
      "committed": 4480,
      "Person": 4481,
      "Day": 4482,
      "Pl": 4483,
      "prepared": 4484,
      "bill": 4485,
      "needing": 4486,
      "narcissist": 4487,
      "stairs": 4488,
      "caffe": 4489,
      "suspect": 4490,
      "typical": 4491,
      "adequ": 4492,
      "participate": 4493,
      "caffeine": 4494,
      "Again": 4495,
      "Le": 4496,
      "release": 4497,
      "isms": 4498,
      "eter": 4499,
      "ender": 4500,
      "version": 4501,
      "swallow": 4502,
      "complic": 4503,
      "appearance": 4504,
      "Unfortunately": 4505,
      "Especially": 4506,
      "feat": 4507,
      "vert": 4508,
      "visible": 4509,
      "clinic": 4510,
      "season": 4511,
      "consequences": 4512,
      "Facebook": 4513,
      "rash": 4514,
      "zen": 4515,
      "NE": 4516,
      "nit": 4517,
      "toll": 4518,
      "uncle": 4519,
      "join": 4520,
      "150": 4521,
      "appeared": 4522,
      "node": 4523,
      "math": 4524,
      "2018": 4525,
      "dys": 4526,
      "awareness": 4527,
      "necessarily": 4528,
      "aggress": 4529,
      "hardest": 4530,
      "2017": 4531,
      "blown": 4532,
      "benz": 4533,
      "helpless": 4534,
      "planet": 4535,
      "mark": 4536,
      "heavily": 4537,
      "athetic": 4538,
      "bon": 4539,
      "tun": 4540,
      "ils": 4541,
      "betes": 4542,
      "believed": 4543,
      "consistently": 4544,
      "flat": 4545,
      "fingers": 4546,
      "Christmas": 4547,
      "circumstances": 4548,
      "VE": 4549,
      "uu": 4550,
      "procrast": 4551,
      "Two": 4552,
      "ties": 4553,
      "abled": 4554,
      "YouT": 4555,
      "ONE": 4556,
      "reminded": 4557,
      "wedding": 4558,
      "pdoc": 4559,
      "stal": 4560,
      "astic": 4561,
      "Instead": 4562,
      "????": 4563,
      "jumping": 4564,
      "LI": 4565,
      "ners": 4566,
      "rich": 4567,
      "ques": 4568,
      "raped": 4569,
      "admitted": 4570,
      "pictures": 4571,
      "zone": 4572,
      "adults": 4573,
      "Finally": 4574,
      "Our": 4575,
      "nodes": 4576,
      "refle": 4577,
      "Okay": 4578,
      "scratch": 4579,
      "Sunday": 4580,
      "gies": 4581,
      "mm": 4582,
      "thus": 4583,
      "tery": 4584,
      "expecting": 4585,
      "arant": 4586,
      "liver": 4587,
      "Something": 4588,
      "regardless": 4589,
      "hypochondriac": 4590,
      "agreed": 4591,
      "rational": 4592,
      "altern": 4593,
      "orig": 4594,
      "nee": 4595,
      "shes": 4596,
      "blank": 4597,
      "quality": 4598,
      "drawing": 4599,
      "bone": 4600,
      "sna": 4601,
      "affecting": 4602,
      "ousand": 4603,
      "syndrome": 4604,
      "diagnose": 4605,
      "July": 4606,
      "Fast": 4607,
      "board": 4608,
      "minimum": 4609,
      "persist": 4610,
      "ourselves": 4611,
      "HAT": 4612,
      "conditions": 4613,
      "EK": 4614,
      "fly": 4615,
      "max": 4616,
      "irritable": 4617,
      "dull": 4618,
      "EVERY": 4619,
      "bank": 4620,
      "inge": 4621,
      "lest": 4622,
      "shel": 4623,
      "couch": 4624,
      "standard": 4625,
      "terrifying": 4626,
      "psychiatric": 4627,
      "Really": 4628,
      "quitting": 4629,
      "recommended": 4630,
      "mask": 4631,
      "tex": 4632,
      "infer": 4633,
      "ashes": 4634,
      "among": 4635,
      "Social": 4636,
      "thrown": 4637,
      "counsel": 4638,
      "rabies": 4639,
      "vulnerable": 4640,
      "vable": 4641,
      "accep": 4642,
      "gover": 4643,
      "picking": 4644,
      "corner": 4645,
      "lung": 4646,
      "article": 4647,
      "dollar": 4648,
      "cook": 4649,
      "mao": 4650,
      "dosage": 4651,
      "awesome": 4652,
      "asp": 4653,
      "west": 4654,
      "colon": 4655,
      "responsibility": 4656,
      "YouTube": 4657,
      "RT": 4658,
      "ured": 4659,
      "wood": 4660,
      "certainly": 4661,
      "winter": 4662,
      "thread": 4663,
      "coo": 4664,
      "ration": 4665,
      "remote": 4666,
      "forgotten": 4667,
      "moder": 4668,
      "applying": 4669,
      "curity": 4670,
      "BE": 4671,
      "flow": 4672,
      "gic": 4673,
      "info": 4674,
      "according": 4675,
      "unemployed": 4676,
      "weigh": 4677,
      "developing": 4678,
      "ghosted": 4679,
      "divorce": 4680,
      "divorced": 4681,
      "vs": 4682,
      "whatso": 4683,
      "discovered": 4684,
      "stranger": 4685,
      "highschool": 4686,
      "ocd": 4687,
      "lady": 4688,
      "Yeah": 4689,
      "cul": 4690,
      "zac": 4691,
      "noise": 4692,
      "tingling": 4693,
      "religious": 4694,
      "31": 4695,
      "sight": 4696,
      "thousand": 4697,
      "projects": 4698,
      "perded": 4699,
      "btw": 4700,
      "alcoholic": 4701,
      "perdedor": 4702,
      "role": 4703,
      "perceive": 4704,
      "reduce": 4705,
      "avoided": 4706,
      "amine": 4707,
      "smoked": 4708,
      "combination": 4709,
      "hallucinations": 4710,
      "solid": 4711,
      "responses": 4712,
      "sky": 4713,
      "----------------": 4714,
      "culture": 4715,
      "": 4716,
      "request": 4717,
      "aside": 4718,
      "healing": 4719,
      "February": 4720,
      "switched": 4721,
      "benefits": 4722,
      "pissed": 4723,
      "perdedorSoy": 4724,
      "bridge": 4725,
      "ima": 4726,
      "kno": 4727,
      "lu": 4728,
      "zz": 4729,
      "ana": 4730,
      "noon": 4731,
      "lifestyle": 4732,
      "45": 4733,
      "eral": 4734,
      "amin": 4735,
      "blur": 4736,
      "Always": 4737,
      "despair": 4738,
      "leading": 4739,
      "mechanism": 4740,
      "BS": 4741,
      "aph": 4742,
      "akote": 4743,
      "ential": 4744,
      "coworker": 4745,
      "feedback": 4746,
      "holiday": 4747,
      "fulfill": 4748,
      "hill": 4749,
      "ancing": 4750,
      "meal": 4751,
      "crack": 4752,
      "functional": 4753,
      "pieces": 4754,
      "jokes": 4755,
      "Currently": 4756,
      "whatsoever": 4757,
      "Fear": 4758,
      "popul": 4759,
      "distant": 4760,
      "comfor": 4761,
      "spell": 4762,
      "paring": 4763,
      "Nor": 4764,
      "yy": 4765,
      "encies": 4766,
      "believes": 4767,
      "ALLY": 4768,
      "AAAAAAAAAAAAAAAAAAAAAAAAAAAAAAAAAAAAAAAAAAAAAAAAAAAAAAAAAAAAAAAAAAAAAAAAAAAAAAAAAAAAAAAAAAAAAAAAAAAAAAAAAAAAAAAAAAAAAAAAAAAAAAAAAAAAAAAAAAAAAAAAAAAAAAAAAAAAAAAAAAAAAAAAAAAAAAAAAAAAAAAAAAAAAAAAAAAAAAAAAAAAAAAAAAAAAAAAAAAAAAAAAAAAAAAAAAAAAAAAAAAAAAAAAAAAAAAA": 4769,
      "500": 4770,
      "UK": 4771,
      "dir": 4772,
      "fal": 4773,
      "occup": 4774,
      "sees": 4775,
      "vig": 4776,
      "mater": 4777,
      "played": 4778,
      "ativity": 4779,
      "opinions": 4780,
      "violent": 4781,
      "ILL": 4782,
      "Com": 4783,
      "Xanax": 4784,
      "ental": 4785,
      "types": 4786,
      "cheated": 4787,
      "bud": 4788,
      "bla": 4789,
      "googled": 4790,
      "dizziness": 4791,
      "ophren": 4792,
      "bra": 4793,
      "itor": 4794,
      "spirit": 4795,
      "lmao": 4796,
      "confli": 4797,
      "shoo": 4798,
      "triggering": 4799,
      "youtu": 4800,
      "Friend": 4801,
      "inpatient": 4802,
      "destructive": 4803,
      "70": 4804,
      "LIV": 4805,
      "punch": 4806,
      "bie": 4807,
      "pair": 4808,
      "High": 4809,
      "improved": 4810,
      "destroy": 4811,
      "3rd": 4812,
      "stare": 4813,
      "states": 4814,
      "formed": 4815,
      "weather": 4816,
      "combo": 4817,
      "tray": 4818,
      "focusing": 4819,
      "nesday": 4820,
      "stabiliz": 4821,
      "lunch": 4822,
      "inking": 4823,
      "inary": 4824,
      "resist": 4825,
      "meas": 4826,
      "ale": 4827,
      "seiz": 4828,
      "chances": 4829,
      "darkness": 4830,
      "grandmother": 4831,
      "onym": 4832,
      "neighbor": 4833,
      "bid": 4834,
      "lean": 4835,
      "abilities": 4836,
      "drinks": 4837,
      "sweating": 4838,
      "Tired": 4839,
      "embarrassment": 4840,
      "thyroid": 4841,
      "alien": 4842,
      "cousin": 4843,
      "Tues": 4844,
      "nap": 4845,
      "hesit": 4846,
      "downs": 4847,
      "gene": 4848,
      "CBT": 4849,
      "sting": 4850,
      "height": 4851,
      "neither": 4852,
      "blue": 4853,
      "meaningful": 4854,
      "behaviors": 4855,
      "irritated": 4856,
      "source": 4857,
      "friendly": 4858,
      "facing": 4859,
      "custo": 4860,
      "yelling": 4861,
      "Sat": 4862,
      "dump": 4863,
      "faith": 4864,
      "mins": 4865,
      "tries": 4866,
      "PE": 4867,
      "ury": 4868,
      "shown": 4869,
      "signed": 4870,
      "50mg": 4871,
      "FE": 4872,
      "amer": 4873,
      "addition": 4874,
      "spi": 4875,
      "lights": 4876,
      "Di": 4877,
      "TI": 4878,
      "dred": 4879,
      "wild": 4880,
      "speed": 4881,
      "PC": 4882,
      "ppy": 4883,
      "prove": 4884,
      "***": 4885,
      "hobby": 4886,
      "hundred": 4887,
      "borderline": 4888,
      "via": 4889,
      "clar": 4890,
      "Too": 4891,
      "label": 4892,
      "distur": 4893,
      "wearing": 4894,
      "impulsive": 4895,
      "challeng": 4896,
      "ursday": 4897,
      "nbsp": 4898,
      "lamotrigine": 4899,
      "inate": 4900,
      "eli": 4901,
      "demand": 4902,
      "harming": 4903,
      "lows": 4904,
      "chem": 4905,
      "smell": 4906,
      "AY": 4907,
      "insist": 4908,
      "anonym": 4909,
      "shif": 4910,
      "internal": 4911,
      "doub": 4912,
      "promise": 4913,
      "ip": 4914,
      "zon": 4915,
      "kidney": 4916,
      "dreaming": 4917,
      "requires": 4918,
      "photos": 4919,
      "texting": 4920,
      "Went": 4921,
      "gather": 4922,
      "workout": 4923,
      "doesnt": 4924,
      "Almost": 4925,
      "craw": 4926,
      "techniques": 4927,
      "Tho": 4928,
      "doe": 4929,
      "unstable": 4930,
      "pos": 4931,
      "Though": 4932,
      "Everyday": 4933,
      "dropping": 4934,
      "screwed": 4935,
      "diabetes": 4936,
      "Col": 4937,
      "anted": 4938,
      "silence": 4939,
      "HE": 4940,
      "earn": 4941,
      "monster": 4942,
      "senior": 4943,
      "transfer": 4944,
      "temper": 4945,
      "Bu": 4946,
      "gin": 4947,
      "wound": 4948,
      "reacting": 4949,
      "rope": 4950,
      "tions": 4951,
      "whom": 4952,
      "confusing": 4953,
      "autistic": 4954,
      "Tuesday": 4955,
      "aunt": 4956,
      "coll": 4957,
      "disabled": 4958,
      "2019": 4959,
      "33": 4960,
      "evil": 4961,
      "ano": 4962,
      "taught": 4963,
      "obsessed": 4964,
      "touched": 4965,
      "binge": 4966,
      "Probably": 4967,
      "limited": 4968,
      "abandoned": 4969,
      "num": 4970,
      "itary": 4971,
      "acne": 4972,
      "lovely": 4973,
      "hormone": 4974,
      "exercising": 4975,
      "training": 4976,
      "lur": 4977,
      "opti": 4978,
      "Very": 4979,
      "sell": 4980,
      "urgent": 4981,
      "applied": 4982,
      "buying": 4983,
      "enty": 4984,
      "induced": 4985,
      "offered": 4986,
      "seemingly": 4987,
      "accidentally": 4988,
      "aaaa": 4989,
      "taste": 4990,
      "xa": 4991,
      "breakup": 4992,
      "itchen": 4993,
      "surprise": 4994,
      "responsibilities": 4995,
      "abdomen": 4996,
      "Dep": 4997,
      "pite": 4998,
      "range": 4999,
      "rely": 5000,
      "utions": 5001,
      "shell": 5002,
      "epam": 5003,
      "increasing": 5004,
      "Therapy": 5005,
      "ica": 5006,
      "backs": 5007,
      "addict": 5008,
      "Work": 5009,
      "Love": 5010,
      "dated": 5011,
      "nast": 5012,
      "input": 5013,
      "toile": 5014,
      "homework": 5015,
      "socialize": 5016,
      "manife": 5017,
      "benefit": 5018,
      "image": 5019,
      ".&": 5020,
      "notes": 5021,
      "countless": 5022,
      "profession": 5023,
      "repeated": 5024,
      "validation": 5025,
      "religion": 5026,
      "Sp": 5027,
      "prison": 5028,
      "bedroom": 5029,
      "drove": 5030,
      "protect": 5031,
      "oper": 5032,
      "va": 5033,
      "ani": 5034,
      "demon": 5035,
      "chill": 5036,
      "bless": 5037,
      "user": 5038,
      "ggy": 5039,
      "flir": 5040,
      "drowning": 5041,
      "CE": 5042,
      "Wed": 5043,
      "tl": 5044,
      "begging": 5045,
      "rape": 5046,
      "deserves": 5047,
      "NOW": 5048,
      "attached": 5049,
      "restaurant": 5050,
      "speech": 5051,
      "choices": 5052,
      "controlling": 5053,
      "supple": 5054,
      "tons": 5055,
      "safety": 5056,
      "glass": 5057,
      "attracted": 5058,
      "Time": 5059,
      "concentrate": 5060,
      "Part": 5061,
      "excl": 5062,
      "believing": 5063,
      "solved": 5064,
      "neglect": 5065,
      "techn": 5066,
      "TLDR": 5067,
      "Despite": 5068,
      "comforting": 5069,
      "dates": 5070,
      "kitchen": 5071,
      "record": 5072,
      "pot": 5073,
      "stresses": 5074,
      "viously": 5075,
      "deli": 5076,
      "School": 5077,
      "?”": 5078,
      "OP": 5079,
      "copy": 5080,
      "leted": 5081,
      "address": 5082,
      "debilit": 5083,
      "pulse": 5084,
      "methods": 5085,
      "bleeding": 5086,
      "ET": 5087,
      "MD": 5088,
      "dogs": 5089,
      "forcing": 5090,
      "bum": 5091,
      "sugar": 5092,
      "elf": 5093,
      "abs": 5094,
      "unte": 5095,
      "imm": 5096,
      "spar": 5097,
      "Through": 5098,
      "joined": 5099,
      "jective": 5100,
      "engage": 5101,
      "legal": 5102,
      "sensations": 5103,
      "Getting": 5104,
      "tunnel": 5105,
      "counselor": 5106,
      "75": 5107,
      "pically": 5108,
      "vacc": 5109,
      "kinds": 5110,
      "testing": 5111,
      "messy": 5112,
      "market": 5113,
      "required": 5114,
      "Par": 5115,
      "poster": 5116,
      "eaten": 5117,
      "engine": 5118,
      "appropri": 5119,
      "students": 5120,
      "teachers": 5121,
      "require": 5122,
      "Thoughts": 5123,
      "EKG": 5124,
      "false": 5125,
      ")?": 5126,
      "HO": 5127,
      "Make": 5128,
      "TW": 5129,
      "vant": 5130,
      "influ": 5131,
      "haun": 5132,
      "sooo": 5133,
      "Thinking": 5134,
      "cig": 5135,
      "horia": 5136,
      "controll": 5137,
      "numbness": 5138,
      "peaceful": 5139,
      "elec": 5140,
      "chemical": 5141,
      "35": 5142,
      "GAD": 5143,
      "iving": 5144,
      "leng": 5145,
      "ront": 5146,
      "primary": 5147,
      "classmates": 5148,
      "ignoring": 5149,
      "conclusion": 5150,
      "accepting": 5151,
      "LIVING": 5152,
      "Wish": 5153,
      "els": 5154,
      "skip": 5155,
      "savings": 5156,
      "split": 5157,
      "lor": 5158,
      "plenty": 5159,
      "rules": 5160,
      "center": 5161,
      "nerve": 5162,
      "negle": 5163,
      "folks": 5164,
      "utterly": 5165,
      "schizophren": 5166,
      "cardiologist": 5167,
      "adequate": 5168,
      "Mus": 5169,
      "Out": 5170,
      "bpd": 5171,
      "gap": 5172,
      "independent": 5173,
      "doses": 5174,
      "spected": 5175,
      "attitude": 5176,
      "empathy": 5177,
      "creative": 5178,
      "fixed": 5179,
      "silent": 5180,
      "anced": 5181,
      "chick": 5182,
      "attend": 5183,
      "Avoid": 5184,
      "Sure": 5185,
      "ii": 5186,
      "explan": 5187,
      "confront": 5188,
      "terribly": 5189,
      "court": 5190,
      "promised": 5191,
      "Self": 5192,
      "Tri": 5193,
      "mindfulness": 5194,
      "sooner": 5195,
      "Advice": 5196,
      "University": 5197,
      "bage": 5198,
      "tooth": 5199,
      "rub": 5200,
      "wont": 5201,
      "Saturday": 5202,
      "cell": 5203,
      "size": 5204,
      "”,": 5205,
      "incapable": 5206,
      "bes": 5207,
      "betray": 5208,
      "plat": 5209,
      "reamed": 5210,
      "headed": 5211,
      "behaviour": 5212,
      "relaxed": 5213,
      "obsessive": 5214,
      "inting": 5215,
      "iff": 5216,
      "diagnoses": 5217,
      "enjoyed": 5218,
      "phones": 5219,
      "freed": 5220,
      "teenage": 5221,
      "evalu": 5222,
      "fro": 5223,
      "hed": 5224,
      "infl": 5225,
      "kes": 5226,
      "forgetting": 5227,
      "immediate": 5228,
      "pleasant": 5229,
      "initi": 5230,
      "separate": 5231,
      "delusions": 5232,
      "Those": 5233,
      "desk": 5234,
      "antidepressant": 5235,
      "english": 5236,
      "associated": 5237,
      "tar": 5238,
      "applic": 5239,
      "goddamn": 5240,
      "pregnancy": 5241,
      "Hopefully": 5242,
      "relapse": 5243,
      "Tell": 5244,
      "lled": 5245,
      "sust": 5246,
      "onder": 5247,
      "decl": 5248,
      "worsen": 5249,
      "unsure": 5250,
      "rumin": 5251,
      "2016": 5252,
      "shape": 5253,
      "remembered": 5254,
      "compass": 5255,
      "lonopin": 5256,
      "spread": 5257,
      "inferior": 5258,
      "cro": 5259,
      "dd": 5260,
      "ets": 5261,
      "mentary": 5262,
      "funeral": 5263,
      "lungs": 5264,
      "GH": 5265,
      "flux": 5266,
      "weakness": 5267,
      "distracted": 5268,
      "hotline": 5269,
      "humili": 5270,
      "academic": 5271,
      "cigare": 5272,
      "2nd": 5273,
      "WALL": 5274,
      "gross": 5275,
      "tense": 5276,
      "diseases": 5277,
      "drama": 5278,
      "garbage": 5279,
      "Wednesday": 5280,
      "ivity": 5281,
      "vated": 5282,
      "lex": 5283,
      "agit": 5284,
      "monitor": 5285,
      "logically": 5286,
      "arrhea": 5287,
      "isolating": 5288,
      "refused": 5289,
      "placed": 5290,
      "relieved": 5291,
      "Apparently": 5292,
      "Know": 5293,
      "wing": 5294,
      "yog": 5295,
      "verge": 5296,
      "undiagnosed": 5297,
      "color": 5298,
      "brothers": 5299,
      "toilet": 5300,
      "LY": 5301,
      "stor": 5302,
      "loop": 5303,
      "compli": 5304,
      "threatened": 5305,
      "violence": 5306,
      ";&": 5307,
      "None": 5308,
      "gift": 5309,
      "page": 5310,
      "reat": 5311,
      "brains": 5312,
      "described": 5313,
      "scheduled": 5314,
      "Liter": 5315,
      "evid": 5316,
      "thesis": 5317,
      "abili": 5318,
      "reasonable": 5319,
      "license": 5320,
      "laun": 5321,
      "legitim": 5322,
      "delete": 5323,
      "Ac": 5324,
      "PO": 5325,
      "ban": 5326,
      "pi": 5327,
      "….": 5328,
      "hol": 5329,
      "astro": 5330,
      "dislike": 5331,
      "frank": 5332,
      "sexuality": 5333,
      "sports": 5334,
      "prepare": 5335,
      "antibio": 5336,
      "judged": 5337,
      "continuing": 5338,
      "disgusted": 5339,
      "shelter": 5340,
      "atory": 5341,
      "adays": 5342,
      "visits": 5343,
      "psychological": 5344,
      "cured": 5345,
      "acle": 5346,
      "extended": 5347,
      "wave": 5348,
      "mutual": 5349,
      "ik": 5350,
      "sett": 5351,
      "ley": 5352,
      "ambit": 5353,
      "rolling": 5354,
      "pointing": 5355,
      "welling": 5356,
      "mechanisms": 5357,
      "Literally": 5358,
      "ann": 5359,
      "remove": 5360,
      "proof": 5361,
      "stret": 5362,
      "surface": 5363,
      "identity": 5364,
      "practically": 5365,
      "surrounded": 5366,
      "abilify": 5367,
      "Dad": 5368,
      "June": 5369,
      "onia": 5370,
      "reflux": 5371,
      "deleted": 5372,
      "worker": 5373,
      "famous": 5374,
      "consciously": 5375,
      "conflict": 5376,
      "OF": 5377,
      "wtf": 5378,
      "yelled": 5379,
      "inability": 5380,
      "overthink": 5381,
      "match": 5382,
      "twitching": 5383,
      "cats": 5384,
      "transit": 5385,
      "American": 5386,
      "alternative": 5387,
      "evidence": 5388,
      "yrs": 5389,
      "hoo": 5390,
      "ordered": 5391,
      "treating": 5392,
      "walks": 5393,
      "presence": 5394,
      "laptop": 5395,
      "fits": 5396,
      "accur": 5397,
      "mast": 5398,
      "raz": 5399,
      "dentist": 5400,
      "shock": 5401,
      "Obviously": 5402,
      "immune": 5403,
      "rat": 5404,
      "reve": 5405,
      "abnormal": 5406,
      "acts": 5407,
      "strate": 5408,
      "burst": 5409,
      "volunte": 5410,
      "spiraling": 5411,
      "improvement": 5412,
      "SSRI": 5413,
      "cognitive": 5414,
      "mately": 5415,
      "limit": 5416,
      "tip": 5417,
      "complex": 5418,
      "shopping": 5419,
      "ultimately": 5420,
      "judgement": 5421,
      "scars": 5422,
      "intelli": 5423,
      "OK": 5424,
      "kms": 5425,
      "phi": 5426,
      "abroad": 5427,
      "hobia": 5428,
      "fool": 5429,
      "interacting": 5430,
      "Heart": 5431,
      "socializing": 5432,
      "factors": 5433,
      "nasty": 5434,
      ":**": 5435,
      "eup": 5436,
      "sometime": 5437,
      "docu": 5438,
      "advant": 5439,
      "Mania": 5440,
      "features": 5441,
      "mur": 5442,
      "faking": 5443,
      "roommate": 5444,
      "profile": 5445,
      "successfully": 5446,
      "referred": 5447,
      "Medic": 5448,
      "aggressive": 5449,
      "compassion": 5450,
      "Je": 5451,
      "soo": 5452,
      "adren": 5453,
      "afternoon": 5454,
      "mense": 5455,
      "Feels": 5456,
      "tendencies": 5457,
      "Covid": 5458,
      "criticism": 5459,
      "website": 5460,
      "Ke": 5461,
      "bare": 5462,
      "areas": 5463,
      "span": 5464,
      "services": 5465,
      "sobbing": 5466,
      "govern": 5467,
      "batt": 5468,
      "tific": 5469,
      "lowest": 5470,
      "mod": 5471,
      "ongue": 5472,
      "workers": 5473,
      "Thursday": 5474,
      "Anything": 5475,
      "bitter": 5476,
      "inevitable": 5477,
      "migraines": 5478,
      "Due": 5479,
      "Tal": 5480,
      "tone": 5481,
      "questioning": 5482,
      "views": 5483,
      "capac": 5484,
      "continues": 5485,
      "intimate": 5486,
      "encouragement": 5487,
      "AP": 5488,
      "Bet": 5489,
      "returned": 5490,
      "ideal": 5491,
      "plate": 5492,
      "surely": 5493,
      "frag": 5494,
      "bothered": 5495,
      "Inst": 5496,
      "military": 5497,
      "pets": 5498,
      "relatives": 5499,
      "traveling": 5500,
      "debilitating": 5501,
      "GO": 5502,
      "immense": 5503,
      "talent": 5504,
      "hopeful": 5505,
      "sorts": 5506,
      "film": 5507,
      "ull": 5508,
      "inno": 5509,
      "pee": 5510,
      "waited": 5511,
      "grocery": 5512,
      "scenario": 5513,
      "material": 5514,
      "5mg": 5515,
      "Event": 5516,
      "vague": 5517,
      "zapine": 5518,
      "anc": 5519,
      "aries": 5520,
      "sole": 5521,
      "agging": 5522,
      "typically": 5523,
      "solutions": 5524,
      "burnt": 5525,
      "foods": 5526,
      "ality": 5527,
      "mole": 5528,
      "**:": 5529,
      "runs": 5530,
      "treats": 5531,
      "........": 5532,
      "freedom": 5533,
      "sustain": 5534,
      "MA": 5535,
      "bp": 5536,
      "omed": 5537,
      "tach": 5538,
      "tongue": 5539,
      "onic": 5540,
      "staff": 5541,
      "sets": 5542,
      "outcast": 5543,
      "lasts": 5544,
      "pulling": 5545,
      "remembering": 5546,
      "previously": 5547,
      "threatening": 5548,
      "swim": 5549,
      "laundry": 5550,
      "crow": 5551,
      "san": 5552,
      "ata": 5553,
      "dear": 5554,
      "homa": 5555,
      "ada": 5556,
      "taper": 5557,
      "presentation": 5558,
      "complicated": 5559,
      "dirty": 5560,
      "Se": 5561,
      "Sleep": 5562,
      "fed": 5563,
      "havent": 5564,
      "rip": 5565,
      "cases": 5566,
      "proced": 5567,
      "lessly": 5568,
      "vivid": 5569,
      "THIS": 5570,
      "slipping": 5571,
      "determin": 5572,
      "bally": 5573,
      "fra": 5574,
      "ceiving": 5575,
      "predic": 5576,
      "overweight": 5577,
      "mallest": 5578,
      "household": 5579,
      "confir": 5580,
      "---": 5581,
      "explaining": 5582,
      "refuses": 5583,
      "passionate": 5584,
      "shooting": 5585,
      "Music": 5586,
      "##": 5587,
      "gender": 5588,
      "ggling": 5589,
      "Everytime": 5590,
      "names": 5591,
      "slightest": 5592,
      "assumed": 5593,
      "Cont": 5594,
      "smallest": 5595,
      "former": 5596,
      "peoples": 5597,
      "Anybody": 5598,
      "chores": 5599,
      "exciting": 5600,
      "internship": 5601,
      "frustration": 5602,
      ".*": 5603,
      "En": 5604,
      "camp": 5605,
      "gur": 5606,
      "latuda": 5607,
      "ulate": 5608,
      "ilst": 5609,
      "pointed": 5610,
      "puts": 5611,
      "park": 5612,
      "plane": 5613,
      "crave": 5614,
      "azepam": 5615,
      "Until": 5616,
      "punish": 5617,
      "cancel": 5618,
      "substance": 5619,
      "Happ": 5620,
      "chair": 5621,
      "replace": 5622,
      "guid": 5623,
      "sleepy": 5624,
      "surviving": 5625,
      "exposure": 5626,
      "customer": 5627,
      "EM": 5628,
      "SH": 5629,
      "fan": 5630,
      "fting": 5631,
      "tiness": 5632,
      "peers": 5633,
      "bow": 5634,
      "charge": 5635,
      "accounts": 5636,
      "crashing": 5637,
      "animal": 5638,
      "animals": 5639,
      "anonymous": 5640,
      "Luck": 5641,
      "zom": 5642,
      "enge": 5643,
      "cheating": 5644,
      "ANT": 5645,
      "appropriate": 5646,
      "frankly": 5647,
      "Scared": 5648,
      "grief": 5649,
      "sab": 5650,
      "moms": 5651,
      "spin": 5652,
      "disappeared": 5653,
      "laid": 5654,
      "judging": 5655,
      "beats": 5656,
      "songs": 5657,
      "32": 5658,
      "reci": 5659,
      "compare": 5660,
      "reduc": 5661,
      "existed": 5662,
      "fallen": 5663,
      "manageable": 5664,
      "annoy": 5665,
      "collap": 5666,
      "BUT": 5667,
      "security": 5668,
      "exper": 5669,
      "agger": 5670,
      "bladder": 5671,
      "improving": 5672,
      "reveal": 5673,
      "bac": 5674,
      "bite": 5675,
      "cand": 5676,
      "recovered": 5677,
      "sured": 5678,
      "dismiss": 5679,
      "shocked": 5680,
      "strongly": 5681,
      "amounts": 5682,
      "factor": 5683,
      "virus": 5684,
      "patterns": 5685,
      "Eventually": 5686,
      "IC": 5687,
      "Pain": 5688,
      "ator": 5689,
      "lash": 5690,
      "mono": 5691,
      "patients": 5692,
      "holidays": 5693,
      "professionals": 5694,
      "advantage": 5695,
      "defe": 5696,
      "acqu": 5697,
      "susp": 5698,
      "harsh": 5699,
      "bullying": 5700,
      "occasions": 5701,
      "obsessing": 5702,
      "contemplating": 5703,
      "devastated": 5704,
      "HH": 5705,
      "uncontroll": 5706,
      "fav": 5707,
      "hibit": 5708,
      "tree": 5709,
      "objective": 5710,
      "suffoc": 5711,
      "confirm": 5712,
      "nuts": 5713,
      "wrists": 5714,
      "assignments": 5715,
      "miles": 5716,
      "lexapro": 5717,
      "FOR": 5718,
      "bond": 5719,
      "ories": 5720,
      "forth": 5721,
      "mato": 5722,
      "const": 5723,
      "diarrhea": 5724,
      "fianc": 5725,
      "blog": 5726,
      "gible": 5727,
      "engaged": 5728,
      "discussion": 5729,
      "poisoning": 5730,
      "Either": 5731,
      "bod": 5732,
      "inct": 5733,
      "restric": 5734,
      "doom": 5735,
      "verted": 5736,
      "verbally": 5737,
      "cop": 5738,
      "inder": 5739,
      "pls": 5740,
      "brut": 5741,
      "weekends": 5742,
      "sickness": 5743,
      "horribly": 5744,
      "description": 5745,
      "occasional": 5746,
      "initially": 5747,
      "deterior": 5748,
      "relevant": 5749,
      "nitus": 5750,
      "jail": 5751,
      "reactions": 5752,
      "acknowledge": 5753,
      "cock": 5754,
      "ters": 5755,
      "responded": 5756,
      "abdominal": 5757,
      "government": 5758,
      "thru": 5759,
      "secure": 5760,
      "depart": 5761,
      "provid": 5762,
      "ereal": 5763,
      "extent": 5764,
      "puss": 5765,
      "30s": 5766,
      "damaged": 5767,
      "supervis": 5768,
      "include": 5769,
      "clinical": 5770,
      "ES": 5771,
      "PLE": 5772,
      "port": 5773,
      "thigh": 5774,
      "tiring": 5775,
      "waway": 5776,
      "20mg": 5777,
      "curities": 5778,
      "oblig": 5779,
      "italop": 5780,
      "shoot": 5781,
      "thankful": 5782,
      "expressing": 5783,
      "Tik": 5784,
      "complaining": 5785,
      "secretly": 5786,
      "''": 5787,
      "RIs": 5788,
      "bothers": 5789,
      "station": 5790,
      "adding": 5791,
      "replied": 5792,
      "initial": 5793,
      "Act": 5794,
      "Ro": 5795,
      "Tr": 5796,
      "sac": 5797,
      "rehab": 5798,
      "atleast": 5799,
      "doomed": 5800,
      "urine": 5801,
      "machine": 5802,
      "hobic": 5803,
      "bothering": 5804,
      "WHY": 5805,
      "blamed": 5806,
      "Sto": 5807,
      "reject": 5808,
      "mance": 5809,
      "fies": 5810,
      "choo": 5811,
      "emptiness": 5812,
      "laughed": 5813,
      "hypochondria": 5814,
      "italopram": 5815,
      "DON": 5816,
      "Each": 5817,
      "Ind": 5818,
      "arrest": 5819,
      "whoever": 5820,
      "insecurities": 5821,
      "hhhh": 5822,
      "rooms": 5823,
      "benzos": 5824,
      "adrenaline": 5825,
      "LA": 5826,
      "Lost": 5827,
      "Sur": 5828,
      "Want": 5829,
      "thri": 5830,
      "melt": 5831,
      "whilst": 5832,
      "weekly": 5833,
      "series": 5834,
      "denied": 5835,
      "panicked": 5836,
      "faster": 5837,
      "graduating": 5838,
      "95": 5839,
      "Ear": 5840,
      "End": 5841,
      "hr": 5842,
      "lly": 5843,
      "pup": 5844,
      "udes": 5845,
      "wow": 5846,
      "atm": 5847,
      "heat": 5848,
      "traits": 5849,
      "phobia": 5850,
      "journal": 5851,
      "thr": 5852,
      "iss": 5853,
      "isnt": 5854,
      "kets": 5855,
      "unfair": 5856,
      "rule": 5857,
      "sites": 5858,
      "grat": 5859,
      "responding": 5860,
      "depth": 5861,
      "Worried": 5862,
      "challenge": 5863,
      "identify": 5864,
      "Wonder": 5865,
      "ios": 5866,
      "kk": 5867,
      "magn": 5868,
      "percent": 5869,
      "traline": 5870,
      "matically": 5871,
      "sisters": 5872,
      "psychology": 5873,
      "psychiatrists": 5874,
      "faces": 5875,
      "delusional": 5876,
      "Plus": 5877,
      "yoga": 5878,
      "Many": 5879,
      "Ugh": 5880,
      "Whe": 5881,
      "retail": 5882,
      "iffer": 5883,
      "exagger": 5884,
      "fiance": 5885,
      "200mg": 5886,
      "ension": 5887,
      "pursue": 5888,
      "dollars": 5889,
      "CA": 5890,
      "fish": 5891,
      "recall": 5892,
      "cher": 5893,
      "decrea": 5894,
      "pays": 5895,
      "thankfully": 5896,
      "virt": 5897,
      "patience": 5898,
      "________": 5899,
      "hedonia": 5900,
      "Ar": 5901,
      "Pan": 5902,
      "flying": 5903,
      "erous": 5904,
      "code": 5905,
      "uncertain": 5906,
      "preh": 5907,
      "teens": 5908,
      "disconnected": 5909,
      "realization": 5910,
      "visited": 5911,
      "destroying": 5912,
      "rupt": 5913,
      "Quest": 5914,
      "beliefs": 5915,
      "capacity": 5916,
      "pharm": 5917,
      "stiff": 5918,
      "section": 5919,
      "vet": 5920,
      "someday": 5921,
      "veness": 5922,
      "longest": 5923,
      "wondered": 5924,
      "marks": 5925,
      "bursts": 5926,
      "ounce": 5927,
      "manipulative": 5928,
      "traumatized": 5929,
      "hormones": 5930,
      "passes": 5931,
      "ample": 5932,
      "amps": 5933,
      "shir": 5934,
      "items": 5935,
      "numbers": 5936,
      "invite": 5937,
      "contribute": 5938,
      "Started": 5939,
      "assaulted": 5940,
      "dude": 5941,
      "unwanted": 5942,
      "ides": 5943,
      "joint": 5944,
      "00mg": 5945,
      "generalized": 5946,
      "assuming": 5947,
      "tools": 5948,
      "development": 5949,
      "attered": 5950,
      "paralyzed": 5951,
      "popular": 5952,
      "Luckily": 5953,
      "Mu": 5954,
      "icious": 5955,
      "posed": 5956,
      "gued": 5957,
      "lasting": 5958,
      "cruc": 5959,
      "ALS": 5960,
      "counseling": 5961,
      "injury": 5962,
      "antipsychotics": 5963,
      "WALLSI": 5964,
      "36": 5965,
      "Fam": 5966,
      "clot": 5967,
      "url": 5968,
      "combat": 5969,
      "aps": 5970,
      "omor": 5971,
      "highs": 5972,
      "visual": 5973,
      "hotel": 5974,
      "fantasy": 5975,
      "entertain": 5976,
      "pussy": 5977,
      "*.": 5978,
      "ka": 5979,
      "pas": 5980,
      "encounter": 5981,
      "alling": 5982,
      "club": 5983,
      "iously": 5984,
      "uded": 5985,
      "messing": 5986,
      "critical": 5987,
      "burned": 5988,
      "channel": 5989,
      "Emotion": 5990,
      "VID": 5991,
      "fought": 5992,
      "ske": 5993,
      "invisible": 5994,
      "ligh": 5995,
      "aying": 5996,
      "nowadays": 5997,
      "chur": 5998,
      "partners": 5999,
      "studied": 6000,
      "clock": 6001,
      "price": 6002,
      "confusion": 6003,
      "driven": 6004,
      "troubles": 6005,
      "virgin": 6006,
      "touching": 6007,
      "employment": 6008,
      "arrived": 6009,
      ",\"": 6010,
      "Ha": 6011,
      "Ty": 6012,
      "eve": 6013,
      "owe": 6014,
      "expressed": 6015,
      "closing": 6016,
      "swing": 6017,
      "creating": 6018,
      "sentence": 6019,
      "tendency": 6020,
      "beauty": 6021,
      "Prozac": 6022,
      "valuable": 6023,
      "assistance": 6024,
      "schizophrenia": 6025,
      "transition": 6026,
      "sabot": 6027,
      "Kind": 6028,
      "tied": 6029,
      "eting": 6030,
      "waves": 6031,
      "izz": 6032,
      "suring": 6033,
      "faced": 6034,
      "roller": 6035,
      "intimacy": 6036,
      "Keep": 6037,
      "'.": 6038,
      "ec": 6039,
      "fright": 6040,
      "detach": 6041,
      "cops": 6042,
      "ists": 6043,
      "joking": 6044,
      "bub": 6045,
      "Living": 6046,
      "messaging": 6047,
      "aneury": 6048,
      "25mg": 6049,
      "instagram": 6050,
      "murder": 6051,
      "holes": 6052,
      "proceed": 6053,
      "guarant": 6054,
      "bike": 6055,
      "brand": 6056,
      "chore": 6057,
      "fights": 6058,
      "Death": 6059,
      "kiss": 6060,
      "Sup": 6061,
      "teach": 6062,
      "spas": 6063,
      "quot": 6064,
      "guard": 6065,
      "sympathy": 6066,
      "blah": 6067,
      "despise": 6068,
      "reminds": 6069,
      "numerous": 6070,
      "optimist": 6071,
      "Spe": 6072,
      "sided": 6073,
      "swelling": 6074,
      "theless": 6075,
      "icle": 6076,
      "tax": 6077,
      "10mg": 6078,
      "smiling": 6079,
      "REALLY": 6080,
      "treatments": 6081,
      "switching": 6082,
      "strict": 6083,
      "Doctor": 6084,
      "Family": 6085,
      "WAY": 6086,
      "dre": 6087,
      "len": 6088,
      "skill": 6089,
      "ambul": 6090,
      "unknown": 6091,
      "master": 6092,
      "trick": 6093,
      "author": 6094,
      "literal": 6095,
      "exhaustion": 6096,
      "impulse": 6097,
      "performance": 6098,
      "inadequate": 6099,
      "orm": 6100,
      "button": 6101,
      "hello": 6102,
      "craving": 6103,
      "itchy": 6104,
      "location": 6105,
      "antibiotics": 6106,
      "Mom": 6107,
      "clic": 6108,
      "dance": 6109,
      "egg": 6110,
      "fid": 6111,
      "tum": 6112,
      "repair": 6113,
      "orap": 6114,
      "loa": 6115,
      "preparing": 6116,
      "realistic": 6117,
      "phases": 6118,
      "skipped": 6119,
      "length": 6120,
      "zombie": 6121,
      "Whether": 6122,
      "oil": 6123,
      "twe": 6124,
      "hest": 6125,
      "format": 6126,
      "flare": 6127,
      "cycles": 6128,
      "lymphoma": 6129,
      "consumed": 6130,
      "Seeing": 6131,
      "technically": 6132,
      "Mental": 6133,
      "Pu": 6134,
      "dun": 6135,
      "ore": 6136,
      "invalid": 6137,
      "unlikely": 6138,
      "compan": 6139,
      "ousing": 6140,
      "suffers": 6141,
      "committing": 6142,
      "elevated": 6143,
      "slip": 6144,
      "significantly": 6145,
      "cooking": 6146,
      "Sy": 6147,
      "sends": 6148,
      "wk": 6149,
      "assess": 6150,
      "abor": 6151,
      "bled": 6152,
      "reminder": 6153,
      "ghosting": 6154,
      "draining": 6155,
      "Jewish": 6156,
      "favour": 6157,
      "KNOW": 6158,
      "wreck": 6159,
      "theaded": 6160,
      "workplace": 6161,
      "getic": 6162,
      "istics": 6163,
      "downhill": 6164,
      "hydr": 6165,
      "driver": 6166,
      "script": 6167,
      "skinny": 6168,
      "EDIT": 6169,
      "letters": 6170,
      "DAE": 6171,
      "flashbacks": 6172,
      "Friends": 6173,
      "inflam": 6174,
      "4th": 6175,
      "data": 6176,
      "kg": 6177,
      "sink": 6178,
      "oral": 6179,
      "scho": 6180,
      "cloud": 6181,
      "aka": 6182,
      ",,": 6183,
      "Wi": 6184,
      "envy": 6185,
      "courses": 6186,
      "relaxing": 6187,
      "vicious": 6188,
      "neglected": 6189,
      "Res": 6190,
      "bits": 6191,
      "ule": 6192,
      "inconven": 6193,
      "selling": 6194,
      "concept": 6195,
      "atest": 6196,
      "discus": 6197,
      "bowel": 6198,
      "handed": 6199,
      "flaw": 6200,
      "begun": 6201,
      "chatting": 6202,
      "burnout": 6203,
      "guts": 6204,
      "Hypo": 6205,
      "celebrate": 6206,
      "excessive": 6207,
      "bile": 6208,
      "mount": 6209,
      "err": 6210,
      "resu": 6211,
      "rolled": 6212,
      "pow": 6213,
      "prexa": 6214,
      "vention": 6215,
      "greatest": 6216,
      "shaky": 6217,
      "imagining": 6218,
      "incredible": 6219,
      "tightness": 6220,
      "scene": 6221,
      "explode": 6222,
      "aspects": 6223,
      "Panic": 6224,
      "ambulance": 6225,
      "onin": 6226,
      "toward": 6227,
      "outcome": 6228,
      "escal": 6229,
      "consent": 6230,
      "shout": 6231,
      "graph": 6232,
      "sadly": 6233,
      "falls": 6234,
      "instance": 6235,
      "SSRIs": 6236,
      "sinus": 6237,
      "Depakote": 6238,
      "Ama": 6239,
      "soft": 6240,
      "xy": 6241,
      "behave": 6242,
      "worn": 6243,
      "healthcare": 6244,
      "cars": 6245,
      "visiting": 6246,
      "straw": 6247,
      "competent": 6248,
      "300mg": 6249,
      "lifted": 6250,
      "narcissistic": 6251,
      "supplements": 6252,
      "Instagram": 6253,
      "nab": 6254,
      "wage": 6255,
      "agorap": 6256,
      "misdiagnosed": 6257,
      "wished": 6258,
      "shortness": 6259,
      "survived": 6260,
      "involve": 6261,
      "included": 6262,
      "permanently": 6263,
      "attachment": 6264,
      "COVID": 6265,
      "groceries": 6266,
      "ids": 6267,
      "update": 6268,
      "aft": 6269,
      "boost": 6270,
      "partly": 6271,
      "cramp": 6272,
      "professor": 6273,
      "Without": 6274,
      "portion": 6275,
      "remotely": 6276,
      "optimistic": 6277,
      "!\"": 6278,
      "EC": 6279,
      "HEL": 6280,
      "Str": 6281,
      "resid": 6282,
      "receiving": 6283,
      "loy": 6284,
      "dip": 6285,
      "indic": 6286,
      "xist": 6287,
      "grind": 6288,
      "drives": 6289,
      "supported": 6290,
      "articles": 6291,
      "battling": 6292,
      "Sad": 6293,
      "Tok": 6294,
      "Val": 6295,
      "cket": 6296,
      "dim": 6297,
      "gard": 6298,
      "anhedonia": 6299,
      "edit": 6300,
      "agers": 6301,
      "overdo": 6302,
      "Intern": 6303,
      "compul": 6304,
      "resort": 6305,
      "researching": 6306,
      "screw": 6307,
      "tinnitus": 6308,
      "meditate": 6309,
      "maintaining": 6310,
      "increasingly": 6311,
      "accurate": 6312,
      "confirmed": 6313,
      "acquaint": 6314,
      "church": 6315,
      "Stru": 6316,
      "Tried": 6317,
      "UST": 6318,
      "cm": 6319,
      "ghest": 6320,
      "ire": 6321,
      "mend": 6322,
      "rier": 6323,
      "chee": 6324,
      "controlled": 6325,
      "midnight": 6326,
      "excite": 6327,
      "casual": 6328,
      "porn": 6329,
      "twitter": 6330,
      "jer": 6331,
      "tat": 6332,
      "orient": 6333,
      "assic": 6334,
      "tire": 6335,
      "loan": 6336,
      "extern": 6337,
      "agues": 6338,
      "urb": 6339,
      "affic": 6340,
      "trag": 6341,
      "longing": 6342,
      "longed": 6343,
      "oping": 6344,
      "listened": 6345,
      "HAVE": 6346,
      "depending": 6347,
      "restlessness": 6348,
      "transport": 6349,
      "recovering": 6350,
      "streets": 6351,
      "correctly": 6352,
      "Post": 6353,
      "kin": 6354,
      "tes": 6355,
      "zoloft": 6356,
      "itation": 6357,
      "aced": 6358,
      "truck": 6359,
      "fig": 6360,
      "ttes": 6361,
      "exists": 6362,
      "trusted": 6363,
      "facial": 6364,
      "official": 6365,
      "Perhaps": 6366,
      "heaven": 6367,
      "wisdom": 6368,
      "Knowing": 6369,
      "AC": 6370,
      "IR": 6371,
      "IBS": 6372,
      "inher": 6373,
      "stone": 6374,
      "isper": 6375,
      "limb": 6376,
      "doors": 6377,
      "cheap": 6378,
      "paycheck": 6379,
      "pressing": 6380,
      "judg": 6381,
      "occurred": 6382,
      "Amazon": 6383,
      "Pret": 6384,
      "cash": 6385,
      "sucked": 6386,
      "introduc": 6387,
      "punching": 6388,
      "intelligent": 6389,
      "defeated": 6390,
      "stressors": 6391,
      "audi": 6392,
      "meetings": 6393,
      "satisfied": 6394,
      "agitated": 6395,
      "Actually": 6396,
      "DI": 6397,
      "RO": 6398,
      "ites": 6399,
      "perform": 6400,
      "erely": 6401,
      "traffic": 6402,
      "lesson": 6403,
      "foreign": 6404,
      "stems": 6405,
      "cuts": 6406,
      "motivate": 6407,
      "luckily": 6408,
      "briefly": 6409,
      "survival": 6410,
      "spiritual": 6411,
      "settled": 6412,
      "lightheaded": 6413,
      "pace": 6414,
      "sco": 6415,
      "meals": 6416,
      "lips": 6417,
      "tify": 6418,
      "shadow": 6419,
      "parking": 6420,
      "blaming": 6421,
      "excuses": 6422,
      "Short": 6423,
      "challenging": 6424,
      "explanation": 6425,
      "brutal": 6426,
      "PS": 6427,
      "Turn": 6428,
      "dig": 6429,
      "mbling": 6430,
      "fellow": 6431,
      "exercises": 6432,
      "interviews": 6433,
      "neurologist": 6434,
      "consuming": 6435,
      "laws": 6436,
      "constip": 6437,
      "1st": 6438,
      "brow": 6439,
      "deed": 6440,
      "coaster": 6441,
      "foggy": 6442,
      "confron": 6443,
      "bloodwork": 6444,
      "prescribe": 6445,
      "cleaned": 6446,
      "turkey": 6447,
      "retard": 6448,
      "lockdown": 6449,
      "wishes": 6450,
      "shifts": 6451,
      "Brain": 6452,
      "dar": 6453,
      "tall": 6454,
      "tok": 6455,
      "agon": 6456,
      "ucking": 6457,
      "izes": 6458,
      "sounded": 6459,
      "freeze": 6460,
      "reflect": 6461,
      "Manic": 6462,
      "fantasies": 6463,
      "allergic": 6464,
      "grabbed": 6465,
      "vanse": 6466,
      "vomit": 6467,
      "blurry": 6468,
      "repeatedly": 6469,
      "scholar": 6470,
      "HR": 6471,
      "cate": 6472,
      "mel": 6473,
      "wasnt": 6474,
      "iding": 6475,
      "iring": 6476,
      "hire": 6477,
      "involunt": 6478,
      "vari": 6479,
      "walls": 6480,
      "adopt": 6481,
      "ause": 6482,
      "equi": 6483,
      "acho": 6484,
      "costs": 6485,
      "overreacting": 6486,
      "harmed": 6487,
      "object": 6488,
      "fuckin": 6489,
      "shoes": 6490,
      "attempting": 6491,
      "elementary": 6492,
      "repeating": 6493,
      "consciousness": 6494,
      "loads": 6495,
      "scenarios": 6496,
      "Next": 6497,
      "housing": 6498,
      "iju": 6499,
      "sold": 6500,
      "unbelie": 6501,
      "larger": 6502,
      "impending": 6503,
      "resulted": 6504,
      "counselling": 6505,
      "ijuana": 6506,
      "Around": 6507,
      "Blo": 6508,
      "LD": 6509,
      "ego": 6510,
      "echo": 6511,
      "uk": 6512,
      "resolved": 6513,
      "ung": 6514,
      "blew": 6515,
      "stream": 6516,
      "reads": 6517,
      "ticket": 6518,
      "sia": 6519,
      "stays": 6520,
      "horror": 6521,
      "shortly": 6522,
      "oxy": 6523,
      "thousands": 6524,
      "perceived": 6525,
      "Stop": 6526,
      "inated": 6527,
      "cannab": 6528,
      "urges": 6529,
      "ours": 6530,
      "Weird": 6531,
      "regist": 6532,
      "sider": 6533,
      "growth": 6534,
      "bully": 6535,
      "boundaries": 6536,
      "guidance": 6537,
      "cocktail": 6538,
      "sacri": 6539,
      "ience": 6540,
      "rise": 6541,
      "slit": 6542,
      "pool": 6543,
      "ventil": 6544,
      "trum": 6545,
      "sticking": 6546,
      "BC": 6547,
      "knee": 6548,
      "pple": 6549,
      "ham": 6550,
      "forming": 6551,
      "rop": 6552,
      "couldnt": 6553,
      "tical": 6554,
      "ctions": 6555,
      "fici": 6556,
      "smaller": 6557,
      "click": 6558,
      "custom": 6559,
      "crashed": 6560,
      "raylar": 6561,
      "fulfilling": 6562,
      "EX": 6563,
      "ape": 6564,
      "rend": 6565,
      "verbal": 6566,
      "aces": 6567,
      "teaching": 6568,
      "therefore": 6569,
      "fade": 6570,
      "schools": 6571,
      "gaslight": 6572,
      "strategies": 6573,
      "120": 6574,
      "38": 6575,
      "GER": 6576,
      "Later": 6577,
      "WHAT": 6578,
      "buc": 6579,
      "gaming": 6580,
      "tant": 6581,
      "indust": 6582,
      "hopelessness": 6583,
      "nearby": 6584,
      "fortunate": 6585,
      "Meds": 6586,
      "coughing": 6587,
      "vomiting": 6588,
      "hundreds": 6589,
      "absence": 6590,
      "influence": 6591,
      "innocent": 6592,
      "shirt": 6593,
      "aneurysm": 6594,
      "discussed": 6595,
      "ASE": 6596,
      "Chi": 6597,
      "Ma": 6598,
      "icial": 6599,
      "disap": 6600,
      "nails": 6601,
      "cringe": 6602,
      "acceptable": 6603,
      "covering": 6604,
      "graduation": 6605,
      "approval": 6606,
      "chase": 6607,
      "families": 6608,
      "pounding": 6609,
      "freshman": 6610,
      "cancelled": 6611,
      "clarity": 6612,
      "Avoidant": 6613,
      "HS": 6614,
      "Up": 6615,
      "dick": 6616,
      "wand": 6617,
      "rein": 6618,
      "begged": 6619,
      "compreh": 6620,
      "Head": 6621,
      "passive": 6622,
      "oooo": 6623,
      "duce": 6624,
      "Christian": 6625,
      "cousins": 6626,
      "persistent": 6627,
      "chicken": 6628,
      "figuring": 6629,
      "Making": 6630,
      "Tru": 6631,
      "cud": 6632,
      "xor": 6633,
      "iny": 6634,
      "tie": 6635,
      "prov": 6636,
      "classic": 6637,
      "wheel": 6638,
      "linked": 6639,
      "fantasize": 6640,
      "choosing": 6641,
      "Blood": 6642,
      "disappointing": 6643,
      "Bes": 6644,
      "bup": 6645,
      "gam": 6646,
      "kn": 6647,
      "native": 6648,
      "yard": 6649,
      "inating": 6650,
      "apathy": 6651,
      "lessons": 6652,
      "listens": 6653,
      "100mg": 6654,
      "snapped": 6655,
      "CAN": 6656,
      "RN": 6657,
      "rance": 6658,
      "tation": 6659,
      "ina": 6660,
      "iment": 6661,
      "finds": 6662,
      "fundam": 6663,
      "calmed": 6664,
      "loner": 6665,
      "dedic": 6666,
      "climb": 6667,
      "kicking": 6668,
      "balls": 6669,
      "determined": 6670,
      "department": 6671,
      "loathing": 6672,
      "34": 6673,
      "ls": 6674,
      "phe": 6675,
      "vation": 6676,
      "thar": 6677,
      "recor": 6678,
      "seat": 6679,
      "asc": 6680,
      "mobile": 6681,
      "unlike": 6682,
      "underlying": 6683,
      "tured": 6684,
      "booked": 6685,
      "crushed": 6686,
      "network": 6687,
      "Mar": 6688,
      "Mind": 6689,
      "camer": 6690,
      "pil": 6691,
      "wide": 6692,
      "forts": 6693,
      "ldr": 6694,
      "mented": 6695,
      "prospect": 6696,
      "tea": 6697,
      "meantime": 6698,
      "movement": 6699,
      "countries": 6700,
      "creativity": 6701,
      "throwaway": 6702,
      "negatively": 6703,
      "grandfather": 6704,
      "poorly": 6705,
      "surveys": 6706,
      "miracle": 6707,
      "inevitably": 6708,
      "cigarettes": 6709,
      "MI": 6710,
      "eacho": 6711,
      "ongoing": 6712,
      "lets": 6713,
      "unrelated": 6714,
      "consul": 6715,
      "irritability": 6716,
      "fatigued": 6717,
      "crushing": 6718,
      "Psycho": 6719,
      "aspir": 6720,
      "TikTok": 6721,
      "Question": 6722,
      "ECG": 6723,
      "eachother": 6724,
      "Gener": 6725,
      "ix": 6726,
      "arter": 6727,
      "lifting": 6728,
      "entered": 6729,
      "gotta": 6730,
      "enjoyable": 6731,
      "deserved": 6732,
      "charged": 6733,
      "supporting": 6734,
      "betrayed": 6735,
      "Pretty": 6736,
      "37": 6737,
      "bri": 6738,
      "cream": 6739,
      "liking": 6740,
      "dete": 6741,
      "upcoming": 6742,
      "spark": 6743,
      "1000": 6744,
      "fearing": 6745,
      "fearful": 6746,
      "cyst": 6747,
      "noticeable": 6748,
      "relaxation": 6749,
      "feeding": 6750,
      "tattoo": 6751,
      "Besides": 6752,
      "IM": 6753,
      "Tra": 6754,
      "Tomor": 6755,
      "dut": 6756,
      "dereal": 6757,
      "iating": 6758,
      "yr": 6759,
      "static": 6760,
      "lifetime": 6761,
      "healthier": 6762,
      "contain": 6763,
      "blan": 6764,
      "intens": 6765,
      "appears": 6766,
      "automatically": 6767,
      "brave": 6768,
      "dunno": 6769,
      "Cu": 6770,
      "SU": 6771,
      "Sud": 6772,
      "zine": 6773,
      "thma": 6774,
      "album": 6775,
      "itar": 6776,
      "veins": 6777,
      "host": 6778,
      "rowing": 6779,
      "energetic": 6780,
      "showering": 6781,
      "colleagues": 6782,
      "THAT": 6783,
      "regrets": 6784,
      "instit": 6785,
      "procedure": 6786,
      "!)": 6787,
      "Sha": 6788,
      "cise": 6789,
      "ga": 6790,
      "rit": 6791,
      "snow": 6792,
      "theory": 6793,
      "tik": 6794,
      "butt": 6795,
      "cos": 6796,
      "ruins": 6797,
      "nothingness": 6798,
      "handful": 6799,
      "resting": 6800,
      "answered": 6801,
      "finishing": 6802,
      "distancing": 6803,
      "vitamin": 6804,
      "topics": 6805,
      "Goodbye": 6806,
      "reflection": 6807,
      "PLEASE": 6808,
      "48": 6809,
      "Euro": 6810,
      "Years": 6811,
      "fru": 6812,
      "review": 6813,
      "coher": 6814,
      "imple": 6815,
      "dive": 6816,
      "torn": 6817,
      "chemist": 6818,
      "completing": 6819,
      "menti": 6820,
      "existential": 6821,
      "distracting": 6822,
      "Starting": 6823,
      "twitches": 6824,
      "supervisor": 6825,
      "/](": 6826,
      "Sex": 6827,
      "chas": 6828,
      "dm": 6829,
      "ect": 6830,
      "stutter": 6831,
      "beer": 6832,
      "dehydr": 6833,
      "cake": 6834,
      "unlo": 6835,
      "ural": 6836,
      "istically": 6837,
      "Took": 6838,
      "benign": 6839,
      "arguments": 6840,
      "intentions": 6841,
      "\"?": 6842,
      "firm": 6843,
      "alle": 6844,
      "theres": 6845,
      "adap": 6846,
      "terminal": 6847,
      "construc": 6848,
      "reduced": 6849,
      "whose": 6850,
      "scrolling": 6851,
      "blocking": 6852,
      "ficial": 6853,
      "holds": 6854,
      "connecting": 6855,
      "reliable": 6856,
      "Suicidal": 6857,
      "polite": 6858,
      "AAAAAAAAAAAAAAAAAAAAAAAAAAAAAAAAAAAAAAAAAAAAAAAAAAAAAAAAAAAAAAAAAAAAAAAAAAAAAAAAAAAAAAAAAAAAAAAAAAAAAAAAAAAAAAAAAAAAAAAAAAAAAAAAAAAAAAAAAAAAAAAAAAAAAAAAAAAAAAAAAAAAAAAAAAAAAAAAAAAAAAAAAAAAAAAAAAAAAAAAAAAAAAAAAAAAAAAAAAAAAAAAAAAAAAAAAAAAAAAAAAAAAAAAAAAAAAAAAAAAAAAAAAAAAAAAAAAAAAAAAAAAAAAAAAAAAAAAAAAAAAAAAAAAAAAAAAAAAAAAAAAAAAAAAAAAAAAAAAAAAAAAAAAAAAAAAAAAAAAAAAAAAAAAAAAAAAAAAAAAAAAAAAAAAAAAAAAAAAAAAAAAAAAAAAAAAAAAAAAAAAAAAAAAAAAAAAAAAAAAAAAAAAAAAAAAAAAAAAAAAAAAAAAAAAAAAAAAAAAAAAAAAAAAAAAAAAAAAAAAAAAAAAAAAAAA": 6859,
      "seizure": 6860,
      "anime": 6861,
      "electric": 6862,
      "HELP": 6863,
      "Tomorrow": 6864,
      "Effe": 6865,
      "HP": 6866,
      "gia": 6867,
      "endure": 6868,
      "perfection": 6869,
      "indiffer": 6870,
      "hysic": 6871,
      "highest": 6872,
      "advise": 6873,
      "guessing": 6874,
      "searched": 6875,
      "facility": 6876,
      "concerning": 6877,
      "sensitivity": 6878,
      "massage": 6879,
      "route": 6880,
      "engineering": 6881,
      "fidget": 6882,
      "excitement": 6883,
      "Sudden": 6884,
      "OO": 6885,
      "Sit": 6886,
      "friday": 6887,
      "gall": 6888,
      "sof": 6889,
      "reson": 6890,
      "rog": 6891,
      "trips": 6892,
      "boys": 6893,
      "spectrum": 6894,
      "powerful": 6895,
      "cards": 6896,
      "privile": 6897,
      "Guess": 6898,
      "ligence": 6899,
      "tolerate": 6900,
      "HATE": 6901,
      "doubts": 6902,
      "eties": 6903,
      "artist": 6904,
      "eling": 6905,
      "entally": 6906,
      "bore": 6907,
      "kindness": 6908,
      "heartbeat": 6909,
      "calming": 6910,
      "programs": 6911,
      "surprising": 6912,
      "Constant": 6913,
      "respectful": 6914,
      "washing": 6915,
      "withdrawals": 6916,
      "MDD": 6917,
      "65": 6918,
      "eight": 6919,
      "hon": 6920,
      "ja": 6921,
      "pile": 6922,
      "xx": 6923,
      "pod": 6924,
      "agony": 6925,
      "disaster": 6926,
      "attribut": 6927,
      "marijuana": 6928,
      "unique": 6929,
      "humanity": 6930,
      "grammar": 6931,
      "grandparents": 6932,
      "distraction": 6933,
      "BP2": 6934,
      "breakdowns": 6935,
      "effectively": 6936,
      "stabilizers": 6937,
      "WANT": 6938,
      "bones": 6939,
      "dress": 6940,
      "tap": 6941,
      "exac": 6942,
      "anging": 6943,
      "dyn": 6944,
      "volunt": 6945,
      "nonstop": 6946,
      "float": 6947,
      "released": 6948,
      "NEED": 6949,
      "original": 6950,
      "haunted": 6951,
      "objectively": 6952,
      "Struggling": 6953,
      "Turns": 6954,
      "PM": 6955,
      "cti": 6956,
      "absent": 6957,
      "hero": 6958,
      "careful": 6959,
      "hip": 6960,
      "**.": 6961,
      "dysp": 6962,
      "tivity": 6963,
      "convincing": 6964,
      "stabbing": 6965,
      "Mean": 6966,
      "participants": 6967,
      "LOT": 6968,
      "Seriously": 6969,
      "Brea": 6970,
      "Hes": 6971,
      "Try": 6972,
      "Wal": 6973,
      "hint": 6974,
      "mation": 6975,
      "pc": 6976,
      "pour": 6977,
      "ugh": 6978,
      "warr": 6979,
      "preface": 6980,
      "hydro": 6981,
      "closet": 6982,
      "pride": 6983,
      "deadline": 6984,
      "replying": 6985,
      "bouts": 6986,
      "phen": 6987,
      "status": 6988,
      "disturbing": 6989,
      "Klonopin": 6990,
      "sand": 6991,
      "erb": 6992,
      "rob": 6993,
      "abuser": 6994,
      "odon": 6995,
      "digest": 6996,
      "ulation": 6997,
      "efforts": 6998,
      "ffic": 6999,
      "begins": 7000,
      "traumas": 7001,
      "micro": 7002,
      "Both": 7003,
      "tolerance": 7004,
      "vigil": 7005,
      "hesitant": 7006,
      "external": 7007,
      "equ": 7008,
      "faint": 7009,
      "reput": 7010,
      "reward": 7011,
      "resolve": 7012,
      "argue": 7013,
      "elt": 7014,
      "hoped": 7015,
      "whats": 7016,
      "minded": 7017,
      "docs": 7018,
      "nail": 7019,
      "terrifies": 7020,
      "breakfast": 7021,
      "plays": 7022,
      "trusting": 7023,
      "Ext": 7024,
      "insanely": 7025,
      "vacy": 7026,
      "employee": 7027,
      "exposed": 7028,
      "woods": 7029,
      "Diagno": 7030,
      "dynamic": 7031,
      "CBD": 7032,
      "Ru": 7033,
      "UL": 7034,
      "Wr": 7035,
      "infect": 7036,
      "semi": 7037,
      "entin": 7038,
      "guide": 7039,
      "relent": 7040,
      "roughly": 7041,
      "curse": 7042,
      "lightly": 7043,
      "instinct": 7044,
      "Experi": 7045,
      "DAY": 7046,
      "hollow": 7047,
      "DM": 7048,
      "DBT": 7049,
      "dorm": 7050,
      "faction": 7051,
      "ware": 7052,
      "instant": 7053,
      "adic": 7054,
      "exit": 7055,
      "weir": 7056,
      "raw": 7057,
      "afterlife": 7058,
      "motions": 7059,
      "cramps": 7060,
      "listed": 7061,
      "values": 7062,
      "privacy": 7063,
      "cashi": 7064,
      "beneficial": 7065,
      "occupied": 7066,
      "crawl": 7067,
      "clicked": 7068,
      "favourite": 7069,
      "customers": 7070,
      "Ab": 7071,
      "Hell": 7072,
      "covers": 7073,
      "scale": 7074,
      "navig": 7075,
      "horic": 7076,
      "enties": 7077,
      "superficial": 7078,
      "leader": 7079,
      "twenties": 7080,
      "beaten": 7081,
      "expression": 7082,
      "scaring": 7083,
      "industry": 7084,
      "Hal": 7085,
      "Ly": 7086,
      "dust": 7087,
      "seven": 7088,
      "acknowled": 7089,
      "justify": 7090,
      "youth": 7091,
      "coma": 7092,
      "coinc": 7093,
      "tremend": 7094,
      "product": 7095,
      "parties": 7096,
      "gentle": 7097,
      "contract": 7098,
      "satisfaction": 7099,
      "reckless": 7100,
      "stigma": 7101,
      "seizures": 7102,
      "GE": 7103,
      "Ide": 7104,
      "Rand": 7105,
      "econ": 7106,
      "fate": 7107,
      "sane": 7108,
      "vary": 7109,
      "outgoing": 7110,
      "distress": 7111,
      "redcap": 7112,
      "granted": 7113,
      "sigh": 7114,
      "denial": 7115,
      "payment": 7116,
      "march": 7117,
      "hospitals": 7118,
      "radi": 7119,
      "creepy": 7120,
      "demons": 7121,
      "frozen": 7122,
      "storm": 7123,
      "Happy": 7124,
      "mentia": 7125,
      "Find": 7126,
      "Fucking": 7127,
      "WOR": 7128,
      "jack": 7129,
      "ued": 7130,
      "respected": 7131,
      "libi": 7132,
      "dome": 7133,
      "rified": 7134,
      "confe": 7135,
      "perception": 7136,
      "trad": 7137,
      "bomb": 7138,
      "hospitalization": 7139,
      "jumped": 7140,
      "assignment": 7141,
      "legitimately": 7142,
      "chemistry": 7143,
      "libido": 7144,
      "SAD": 7145,
      "mall": 7146,
      "rof": 7147,
      "isation": 7148,
      "liqu": 7149,
      "outlet": 7150,
      "spine": 7151,
      "joining": 7152,
      "dishes": 7153,
      "Anti": 7154,
      "calories": 7155,
      "deserving": 7156,
      "ification": 7157,
      "praying": 7158,
      "pursuing": 7159,
      "individuals": 7160,
      "Cal": 7161,
      "Ge": 7162,
      "Physic": 7163,
      "Rest": 7164,
      "SV": 7165,
      "dreading": 7166,
      "gif": 7167,
      "acing": 7168,
      "loans": 7169,
      "plant": 7170,
      "disagree": 7171,
      "checks": 7172,
      "apparent": 7173,
      "logic": 7174,
      "Real": 7175,
      "gaining": 7176,
      "yea": 7177,
      "delay": 7178,
      "slee": 7179,
      "introverted": 7180,
      "pse": 7181,
      "defici": 7182,
      "unpleasant": 7183,
      "anxieties": 7184,
      "Think": 7185,
      "handling": 7186,
      "Canada": 7187,
      "bullet": 7188,
      "hyperventil": 7189,
      "SOME": 7190,
      "specialist": 7191,
      "Constantly": 7192,
      "reference": 7193,
      "paths": 7194,
      "circles": 7195,
      "kissed": 7196,
      "moderate": 7197,
      "fiancé": 7198,
      "exacerb": 7199,
      "39": 7200,
      "Ton": 7201,
      "aks": 7202,
      "cs": 7203,
      "pants": 7204,
      "ert": 7205,
      "ungrateful": 7206,
      "terror": 7207,
      "apentin": 7208,
      "kicks": 7209,
      "belonged": 7210,
      "Manage": 7211,
      "skipping": 7212,
      "flirting": 7213,
      "instruc": 7214,
      "revol": 7215,
      "meat": 7216,
      "owner": 7217,
      "smash": 7218,
      "Thankfully": 7219,
      "sorta": 7220,
      "dragging": 7221,
      "stabilizer": 7222,
      "neighbors": 7223,
      "):": 7224,
      "evol": 7225,
      "lord": 7226,
      "patch": 7227,
      "sne": 7228,
      "alarm": 7229,
      "ofc": 7230,
      "etine": 7231,
      "gold": 7232,
      "loso": 7233,
      "unexpected": 7234,
      "neu": 7235,
      "intended": 7236,
      "guitar": 7237,
      "Whatever": 7238,
      "brown": 7239,
      "180": 7240,
      "gradually": 7241,
      "client": 7242,
      "Working": 7243,
      "qualify": 7244,
      "allergies": 7245,
      "Normally": 7246,
      "mour": 7247,
      "lik": 7248,
      "abt": 7249,
      "esus": 7250,
      "unmotivated": 7251,
      "progre": 7252,
      "disci": 7253,
      "tick": 7254,
      "finances": 7255,
      "serve": 7256,
      "hometown": 7257,
      "bliss": 7258,
      "huh": 7259,
      "giene": 7260,
      "shook": 7261,
      "replies": 7262,
      "grandpa": 7263,
      "reminding": 7264,
      "accommod": 7265,
      "minority": 7266,
      "characters": 7267,
      "filling": 7268,
      "temporarily": 7269,
      "rapidly": 7270,
      "Personality": 7271,
      "Parti": 7272,
      "bachel": 7273,
      "cort": 7274,
      "citalopram": 7275,
      "gru": 7276,
      "muc": 7277,
      "snee": 7278,
      "inep": 7279,
      "incompetent": 7280,
      "resc": 7281,
      "neut": 7282,
      "screamed": 7283,
      "needles": 7284,
      "vibes": 7285,
      "mentality": 7286,
      "bug": 7287,
      "licit": 7288,
      "statement": 7289,
      "products": 7290,
      "phra": 7291,
      "clingy": 7292,
      "surrounding": 7293,
      "application": 7294,
      "declined": 7295,
      "DE": 7296,
      "gling": 7297,
      "sinc": 7298,
      "scold": 7299,
      "returning": 7300,
      "atable": 7301,
      "abapentin": 7302,
      "trics": 7303,
      "boat": 7304,
      "hired": 7305,
      "acceptance": 7306,
      "rushed": 7307,
      "approved": 7308,
      "Except": 7309,
      "organized": 7310,
      "recommendations": 7311,
      "excessively": 7312,
      "Survey": 7313,
      "Internet": 7314,
      "confronted": 7315,
      "discipl": 7316,
      "/?": 7317,
      "ctor": 7318,
      "nie": 7319,
      "ino": 7320,
      "veh": 7321,
      "veget": 7322,
      "asthma": 7323,
      "esium": 7324,
      "peak": 7325,
      "proven": 7326,
      "fold": 7327,
      "theirs": 7328,
      "advoc": 7329,
      "easiest": 7330,
      "dads": 7331,
      "mornings": 7332,
      "rabbit": 7333,
      "decades": 7334,
      "tearing": 7335,
      "ruminating": 7336,
      "magnesium": 7337,
      "64": 7338,
      "Att": 7339,
      "informed": 7340,
      "exception": 7341,
      "imposter": 7342,
      "spite": 7343,
      "dissa": 7344,
      "thood": 7345,
      "accused": 7346,
      "upsetting": 7347,
      "approaching": 7348,
      "starving": 7349,
      "risky": 7350,
      "blowing": 7351,
      "adderall": 7352,
      "procrastination": 7353,
      "--------------------------------": 7354,
      "genetic": 7355,
      "chasing": 7356,
      "JUST": 7357,
      "Pre": 7358,
      "SA": 7359,
      "Same": 7360,
      "bil": 7361,
      "toys": 7362,
      "utm": 7363,
      "depersonal": 7364,
      "upped": 7365,
      "manner": 7366,
      "stock": 7367,
      "cheer": 7368,
      "giant": 7369,
      "shots": 7370,
      "disappearing": 7371,
      "referral": 7372,
      "emails": 7373,
      "belly": 7374,
      "investig": 7375,
      "inflammation": 7376,
      "unlovable": 7377,
      ".,": 7378,
      "forum": 7379,
      "casts": 7380,
      "unmedicated": 7381,
      "happily": 7382,
      "estab": 7383,
      "clen": 7384,
      "messaged": 7385,
      "floating": 7386,
      "minimal": 7387,
      "brushed": 7388,
      "ordinary": 7389,
      "grie": 7390,
      "derealization": 7391,
      "Tonight": 7392,
      "IF": 7393,
      "Range": 7394,
      "pian": 7395,
      "tack": 7396,
      "ums": 7397,
      "rema": 7398,
      "stated": 7399,
      "forgiven": 7400,
      "perpet": 7401,
      "spit": 7402,
      "stub": 7403,
      "pract": 7404,
      "severity": 7405,
      "magic": 7406,
      "degrees": 7407,
      "techno": 7408,
      "baseline": 7409,
      "analyzing": 7410,
      "PCP": 7411,
      "deliver": 7412,
      "Medication": 7413,
      "ARE": 7414,
      "masking": 7415,
      "beside": 7416,
      "wired": 7417,
      "robot": 7418,
      "unaware": 7419,
      "rum": 7420,
      "extro": 7421,
      "heading": 7422,
      "string": 7423,
      "trial": 7424,
      "impati": 7425,
      "negativity": 7426,
      "spots": 7427,
      "engaging": 7428,
      "shutting": 7429,
      "ranting": 7430,
      "organization": 7431,
      "purely": 7432,
      "resentment": 7433,
      "dismissive": 7434,
      "establish": 7435,
      "07": 7436,
      "85": 7437,
      "Dam": 7438,
      "Te": 7439,
      "inte": 7440,
      "belt": 7441,
      "heck": 7442,
      "root": 7443,
      "pocket": 7444,
      "ulcer": 7445,
      "discour": 7446,
      "woken": 7447,
      "interpret": 7448,
      "attending": 7449,
      "Inter": 7450,
      "passions": 7451,
      "Dealing": 7452,
      "instances": 7453,
      "hidden": 7454,
      "sweats": 7455,
      "masturb": 7456,
      "revealed": 7457,
      "izza": 7458,
      "GERD": 7459,
      "Mine": 7460,
      "km": 7461,
      "eria": 7462,
      "acute": 7463,
      "suit": 7464,
      "moral": 7465,
      "psyche": 7466,
      "heartbroken": 7467,
      "carrying": 7468,
      "flag": 7469,
      "enjoyment": 7470,
      "hangout": 7471,
      "counting": 7472,
      "creeping": 7473,
      "eternal": 7474,
      "Throughout": 7475,
      "Between": 7476,
      "mountain": 7477,
      "xyzine": 7478,
      "AB": 7479,
      "DV": 7480,
      "NEVER": 7481,
      "Ter": 7482,
      "Und": 7483,
      "Wow": 7484,
      "gan": 7485,
      "kest": 7486,
      "popped": 7487,
      "daydreaming": 7488,
      "apathetic": 7489,
      "killers": 7490,
      "houses": 7491,
      "player": 7492,
      "mentions": 7493,
      "directed": 7494,
      "stars": 7495,
      "threats": 7496,
      "catching": 7497,
      "ENT": 7498,
      "washed": 7499,
      "tricks": 7500,
      "crawling": 7501,
      "philoso": 7502,
      "matologist": 7503,
      "uncertainty": 7504,
      "Ben": 7505,
      "mouse": 7506,
      "default": 7507,
      "poop": 7508,
      "wealth": 7509,
      "shed": 7510,
      "immature": 7511,
      "affair": 7512,
      "hygiene": 7513,
      "stumble": 7514,
      "mini": 7515,
      "moves": 7516,
      "roommates": 7517,
      "mothers": 7518,
      "crappy": 7519,
      "Dec": 7520,
      "ustral": 7521,
      "depakote": 7522,
      "Adder": 7523,
      "practicing": 7524,
      "penis": 7525,
      "dumped": 7526,
      "HOW": 7527,
      "sanity": 7528,
      "NY": 7529,
      "Wo": 7530,
      "aper": 7531,
      "pel": 7532,
      "outlook": 7533,
      "chin": 7534,
      "uctu": 7535,
      "bleak": 7536,
      "happiest": 7537,
      "quir": 7538,
      "monia": 7539,
      "disabilities": 7540,
      "harass": 7541,
      "omen": 7542,
      "humor": 7543,
      "settle": 7544,
      "skull": 7545,
      "fixing": 7546,
      "loaded": 7547,
      "apologized": 7548,
      "intentionally": 7549,
      "standards": 7550,
      "euphoria": 7551,
      "meltdown": 7552,
      "piano": 7553,
      "Zy": 7554,
      "hrs": 7555,
      "iP": 7556,
      "ns": 7557,
      "wra": 7558,
      "ensure": 7559,
      "itle": 7560,
      "hable": 7561,
      "arre": 7562,
      "aswell": 7563,
      "lio": 7564,
      "butter": 7565,
      "motor": 7566,
      "fucks": 7567,
      "wrap": 7568,
      "Somebody": 7569,
      "fluctu": 7570,
      "otine": 7571,
      "involves": 7572,
      "protected": 7573,
      "SEL": 7574,
      "radio": 7575,
      "etern": 7576,
      "evaluation": 7577,
      "recipro": 7578,
      "Effexor": 7579,
      "ECT": 7580,
      "Felt": 7581,
      "bpm": 7582,
      "dreamed": 7583,
      "mund": 7584,
      "rut": 7585,
      "independ": 7586,
      "anus": 7587,
      "melan": 7588,
      "chills": 7589,
      "users": 7590,
      "yours": 7591,
      "grasp": 7592,
      "nerves": 7593,
      "hurtful": 7594,
      "images": 7595,
      "productivity": 7596,
      "slave": 7597,
      "neurological": 7598,
      "nurses": 7599,
      "LIFE": 7600,
      "initiate": 7601,
      "resume": 7602,
      "diplo": 7603,
      "onset": 7604,
      "beach": 7605,
      "abusing": 7606,
      "ida": 7607,
      "ucing": 7608,
      "tele": 7609,
      "green": 7610,
      "prone": 7611,
      "movements": 7612,
      "impacted": 7613,
      "submit": 7614,
      "subconsciously": 7615,
      "RESS": 7616,
      "tonsil": 7617,
      "osity": 7618,
      "thymia": 7619,
      "sinking": 7620,
      "temperature": 7621,
      "target": 7622,
      "bodies": 7623,
      "Wondering": 7624,
      "Emotional": 7625,
      "assessment": 7626,
      "3x": 7627,
      "Imag": 7628,
      "Jo": 7629,
      "gage": 7630,
      "gently": 7631,
      "pizza": 7632,
      "zo": 7633,
      "enses": 7634,
      "arrog": 7635,
      "elim": 7636,
      "cage": 7637,
      "shor": 7638,
      "tracking": 7639,
      "grey": 7640,
      "mors": 7641,
      "buried": 7642,
      "medium": 7643,
      "harmful": 7644,
      "lawy": 7645,
      "explore": 7646,
      "adulthood": 7647,
      "politics": 7648,
      "arantine": 7649,
      "Colle": 7650,
      "dressed": 7651,
      "utm_": 7652,
      ";”": 7653,
      "Eid": 7654,
      "tte": 7655,
      "vably": 7656,
      "dozen": 7657,
      "irresponsible": 7658,
      "imgur": 7659,
      "ives": 7660,
      "promo": 7661,
      "usions": 7662,
      "beforehand": 7663,
      "chosen": 7664,
      "Avpd": 7665,
      "openly": 7666,
      "deadly": 7667,
      "ulties": 7668,
      "HAHA": 7669,
      "journ": 7670,
      "rotting": 7671,
      "tapering": 7672,
      "cruciating": 7673,
      "detached": 7674,
      "oriented": 7675,
      "Diagnosed": 7676,
      "Random": 7677,
      "AIN": 7678,
      "GI": 7679,
      "Twit": 7680,
      "file": 7681,
      "national": 7682,
      "pneu": 7683,
      "voc": 7684,
      "anni": 7685,
      "rec": 7686,
      "befriend": 7687,
      "ellow": 7688,
      "december": 7689,
      "outsider": 7690,
      "illusion": 7691,
      "quote": 7692,
      "monthly": 7693,
      "downward": 7694,
      "sertraline": 7695,
      "cheat": 7696,
      "oids": 7697,
      "visi": 7698,
      "pressive": 7699,
      "internally": 7700,
      "IVE": 7701,
      "keys": 7702,
      "tablets": 7703,
      "contributing": 7704,
      "Doctors": 7705,
      "oxetine": 7706,
      "rationally": 7707,
      "GHT": 7708,
      "constipation": 7709,
      "pneumonia": 7710,
      "Eating": 7711,
      "Night": 7712,
      "UN": 7713,
      "mam": 7714,
      "vill": 7715,
      "lep": 7716,
      "asm": 7717,
      "rib": 7718,
      "pover": 7719,
      "impression": 7720,
      "brary": 7721,
      "prano": 7722,
      "august": 7723,
      "deny": 7724,
      "generic": 7725,
      "ramble": 7726,
      "separated": 7727,
      "fragile": 7728,
      "swimming": 7729,
      "punishment": 7730,
      "inconvenience": 7731,
      "intensity": 7732,
      "Extreme": 7733,
      "domestic": 7734,
      "Zyprexa": 7735,
      "130": 7736,
      "Mis": 7737,
      "junk": 7738,
      "dop": 7739,
      "exhibit": 7740,
      "wean": 7741,
      "proces": 7742,
      "prozac": 7743,
      "centered": 7744,
      "advent": 7745,
      "includes": 7746,
      "intensely": 7747,
      "improvements": 7748,
      "desires": 7749,
      "guns": 7750,
      "chaos": 7751,
      "Overwhel": 7752,
      "abandonment": 7753,
      "loyal": 7754,
      "retarded": 7755,
      "dysphoria": 7756,
      "neutral": 7757,
      "impatient": 7758,
      "College": 7759,
      "Fun": 7760,
      "Low": 7761,
      "Main": 7762,
      "kit": 7763,
      "army": 7764,
      "keting": 7765,
      "amins": 7766,
      "addit": 7767,
      "sus": 7768,
      "uneasy": 7769,
      "shallow": 7770,
      "affective": 7771,
      "plag": 7772,
      "2015": 7773,
      "audio": 7774,
      "append": 7775,
      "damaging": 7776,
      "steady": 7777,
      "races": 7778,
      "petty": 7779,
      "biological": 7780,
      "lumps": 7781,
      "resource": 7782,
      "migraine": 7783,
      "volunteering": 7784,
      "unbelievably": 7785,
      "Europe": 7786,
      "Particip": 7787,
      "Adderall": 7788,
      "pranolol": 7789,
      "(?)": 7790,
      "5th": 7791,
      "76": 7792,
      "Ger": 7793,
      "Sever": 7794,
      "Span": 7795,
      "Shit": 7796,
      "Wa": 7797,
      "restrain": 7798,
      "domin": 7799,
      "tiapine": 7800,
      "unit": 7801,
      "excruciating": 7802,
      "tingly": 7803,
      "dismissed": 7804,
      "biz": 7805,
      "flashes": 7806,
      "empathetic": 7807,
      "difficulties": 7808,
      "answering": 7809,
      "Tips": 7810,
      "criminal": 7811,
      "recognized": 7812,
      "scienti": 7813,
      "survivor": 7814,
      "suffocating": 7815,
      "decrease": 7816,
      "agoraphobia": 7817,
      "Restless": 7818,
      "mucus": 7819,
      "diploma": 7820,
      "Twitter": 7821,
      "Spanish": 7822,
      "CPTSD": 7823,
      "alo": 7824,
      "suffic": 7825,
      "Three": 7826,
      "intervention": 7827,
      "reassured": 7828,
      "tempted": 7829,
      "crete": 7830,
      "latest": 7831,
      "Stu": 7832,
      "hunger": 7833,
      "OUT": 7834,
      "located": 7835,
      "measure": 7836,
      "cannabis": 7837,
      "Bad": 7838,
      "glo": 7839,
      "jfe": 7840,
      "pink": 7841,
      "packing": 7842,
      "intake": 7843,
      "myster": 7844,
      "ars": 7845,
      "acet": 7846,
      "cean": 7847,
      "diver": 7848,
      "compar": 7849,
      "comparing": 7850,
      "gues": 7851,
      "forehead": 7852,
      "finals": 7853,
      "hyp": 7854,
      "reassure": 7855,
      "panicky": 7856,
      "deadlines": 7857,
      "figures": 7858,
      "international": 7859,
      "sensory": 7860,
      "communicating": 7861,
      "qualtrics": 7862,
      "obsession": 7863,
      "ignorant": 7864,
      "enemy": 7865,
      "eligible": 7866,
      "vaccine": 7867,
      "Under": 7868,
      "Title": 7869,
      "ev": 7870,
      "obe": 7871,
      "armp": 7872,
      "verti": 7873,
      "homo": 7874,
      "suspected": 7875,
      "neath": 7876,
      "beings": 7877,
      "quarantine": 7878,
      "discord": 7879,
      "relatable": 7880,
      "clon": 7881,
      "2023": 7882,
      "cardi": 7883,
      "nonsense": 7884,
      "cussion": 7885,
      "sales": 7886,
      "\\*\\*": 7887,
      "injured": 7888,
      "150mg": 7889,
      "Child": 7890,
      "deficiency": 7891,
      "Management": 7892,
      "4am": 7893,
      "Cy": 7894,
      "GET": 7895,
      "Hu": 7896,
      "Int": 7897,
      "Vraylar": 7898,
      "iv": 7899,
      "tac": 7900,
      "thirst": 7901,
      "intest": 7902,
      "toms": 7903,
      "somatic": 7904,
      "odds": 7905,
      "shattered": 7906,
      "vial": 7907,
      "Doing": 7908,
      "curl": 7909,
      "carbon": 7910,
      "drift": 7911,
      "glasses": 7912,
      "catastro": 7913,
      "ringing": 7914,
      "protein": 7915,
      "amoe": 7916,
      "END": 7917,
      "claims": 7918,
      "concentration": 7919,
      "settings": 7920,
      "applications": 7921,
      "arrested": 7922,
      "guarantee": 7923,
      "prospects": 7924,
      "Car": 7925,
      "PP": 7926,
      "kar": 7927,
      "lm": 7928,
      "ml": 7929,
      "inhal": 7930,
      "oned": 7931,
      "riosity": 7932,
      "withdraw": 7933,
      "spouse": 7934,
      "minds": 7935,
      "singing": 7936,
      "completed": 7937,
      "horrific": 7938,
      "expand": 7939,
      "Proble": 7940,
      "cliff": 7941,
      "encouraging": 7942,
      "employer": 7943,
      "electr": 7944,
      "collapse": 7945,
      "vehicle": 7946,
      "dopamine": 7947,
      "6th": 7948,
      "Fin": 7949,
      "dal": 7950,
      "score": 7951,
      "itiz": 7952,
      "itled": 7953,
      "asing": 7954,
      "concrete": 7955,
      "proportion": 7956,
      "Soon": 7957,
      "relates": 7958,
      "boom": 7959,
      "appt": 7960,
      "understandable": 7961,
      "ditch": 7962,
      "incor": 7963,
      "physi": 7964,
      "lists": 7965,
      "supposedly": 7966,
      "concert": 7967,
      "refill": 7968,
      "temple": 7969,
      "substances": 7970,
      "grip": 7971,
      "originally": 7972,
      "General": 7973,
      "progressed": 7974,
      "mundane": 7975,
      "Best": 7976,
      "evic": 7977,
      "fain": 7978,
      "wet": 7979,
      "xanax": 7980,
      "soc": 7981,
      "ridden": 7982,
      "caine": 7983,
      "poet": 7984,
      "offended": 7985,
      "underneath": 7986,
      "curable": 7987,
      "conduc": 7988,
      "peacefully": 7989,
      "continuously": 7990,
      "groin": 7991,
      "dumbass": 7992,
      "starve": 7993,
      "ounced": 7994,
      "swallowing": 7995,
      "EVERYTHING": 7996,
      "tification": 7997,
      "uncontrollable": 7998,
      "confirmation": 7999,
      "Earth": 8000,
      "judgmental": 8001,
      "grieving": 8002,
      "practition": 8003,
      "SELF": 8004,
      "annivers": 8005,
      "Jesus": 8006,
      "Rant": 8007,
      "bird": 8008,
      "bail": 8009,
      "lame": 8010,
      "tag": 8011,
      "inappropriate": 8012,
      "cease": 8013,
      "shing": 8014,
      "anged": 8015,
      "chocol": 8016,
      "existent": 8017,
      "convo": 8018,
      "halfway": 8019,
      "distractions": 8020,
      "structure": 8021,
      "accompan": 8022,
      "sorrow": 8023,
      "intelligence": 8024,
      "lurking": 8025,
      "soooo": 8026,
      "stretch": 8027,
      "pharmacy": 8028,
      "400": 8029,
      "911": 8030,
      "XD": 8031,
      "bust": 8032,
      "wine": 8033,
      "thick": 8034,
      "towel": 8035,
      "rever": 8036,
      "stit": 8037,
      "novel": 8038,
      "library": 8039,
      "dementia": 8040,
      "exe": 8041,
      "extr": 8042,
      "propranolol": 8043,
      "sheets": 8044,
      "whore": 8045,
      "jobless": 8046,
      "dish": 8047,
      "greater": 8048,
      "Note": 8049,
      "fuz": 8050,
      "marily": 8051,
      "Depressed": 8052,
      "charges": 8053,
      "achieved": 8054,
      "arguing": 8055,
      "adole": 8056,
      "spinning": 8057,
      "provided": 8058,
      ".(": 8059,
      "Foc": 8060,
      "HU": 8061,
      "noose": 8062,
      "liest": 8063,
      "deta": 8064,
      "hook": 8065,
      "ads": 8066,
      "earning": 8067,
      "sitive": 8068,
      "grap": 8069,
      "opi": 8070,
      "trivial": 8071,
      "primarily": 8072,
      "appealing": 8073,
      "commitment": 8074,
      "introvert": 8075,
      "Googling": 8076,
      "squee": 8077,
      "Little": 8078,
      "devastating": 8079,
      "Relation": 8080,
      "Relax": 8081,
      "Suddenly": 8082,
      "boredom": 8083,
      "chocolate": 8084,
      "Iâ": 8085,
      "ired": 8086,
      "umber": 8087,
      "indeed": 8088,
      "outta": 8089,
      "popping": 8090,
      "whereas": 8091,
      "talkative": 8092,
      "misunderstood": 8093,
      "parag": 8094,
      "marry": 8095,
      "communities": 8096,
      "videogames": 8097,
      "destined": 8098,
      "ADD": 8099,
      "Stay": 8100,
      "surroundings": 8101,
      "packed": 8102,
      "allergy": 8103,
      "bumps": 8104,
      "Psychiat": 8105,
      "excluded": 8106,
      "frame": 8107,
      "categ": 8108,
      "Situ": 8109,
      "gallbladder": 8110,
      "stubborn": 8111,
      "arrogant": 8112,
      "additional": 8113,
      "adolesc": 8114,
      "CON": 8115,
      "ION": 8116,
      "JD": 8117,
      "Mod": 8118,
      "Taking": 8119,
      "juni": 8120,
      "oth": 8121,
      "sought": 8122,
      "vast": 8123,
      "inch": 8124,
      "repul": 8125,
      "itional": 8126,
      "essay": 8127,
      "minist": 8128,
      "drivers": 8129,
      "uding": 8130,
      "comfortably": 8131,
      "suppress": 8132,
      "valent": 8133,
      "examples": 8134,
      "nonetheless": 8135,
      "winning": 8136,
      "practical": 8137,
      "writer": 8138,
      "dissociation": 8139,
      "square": 8140,
      "Trigger": 8141,
      "crossed": 8142,
      "ropion": 8143,
      "pillow": 8144,
      "blanket": 8145,
      "billion": 8146,
      "erto": 8147,
      "orbid": 8148,
      "tified": 8149,
      "depri": 8150,
      "outbursts": 8151,
      "indul": 8152,
      "elling": 8153,
      "vibe": 8154,
      "omg": 8155,
      "prin": 8156,
      "ashion": 8157,
      "Remember": 8158,
      "importantly": 8159,
      "twitch": 8160,
      "laughs": 8161,
      "raph": 8162,
      "progressively": 8163,
      "increases": 8164,
      "criteria": 8165,
      "milk": 8166,
      "crimin": 8167,
      "slide": 8168,
      "landed": 8169,
      "salary": 8170,
      "nursing": 8171,
      "preventing": 8172,
      "brushing": 8173,
      "scans": 8174,
      "nicotine": 8175,
      "affectionate": 8176,
      "campus": 8177,
      "puppy": 8178,
      "coherent": 8179,
      "leptal": 8180,
      "bizarre": 8181,
      "detailed": 8182,
      "TE": 8183,
      "Vent": 8184,
      "awa": 8185,
      "knot": 8186,
      "klonopin": 8187,
      "lacking": 8188,
      "alter": 8189,
      "utic": 8190,
      "produce": 8191,
      "buspar": 8192,
      "paras": 8193,
      "deciding": 8194,
      "RED": 8195,
      "Cancer": 8196,
      "precious": 8197,
      "expenses": 8198,
      "delusion": 8199,
      "blames": 8200,
      "roads": 8201,
      "spreading": 8202,
      "knock": 8203,
      "worsening": 8204,
      "Puerto": 8205,
      "adopted": 8206,
      "phrase": 8207,
      "2x": 8208,
      "Fi": 8209,
      "WILL": 8210,
      "kne": 8211,
      "ocean": 8212,
      "sea": 8213,
      "lil": 8214,
      "lip": 8215,
      "entering": 8216,
      "permission": 8217,
      "torment": 8218,
      "hyster": 8219,
      "interpersonal": 8220,
      "obst": 8221,
      "Reading": 8222,
      "spoiled": 8223,
      "allowing": 8224,
      "checkup": 8225,
      "spirone": 8226,
      "chap": 8227,
      "addictions": 8228,
      "FEEL": 8229,
      "aaaaaaaa": 8230,
      "euphoric": 8231,
      "uncontrollably": 8232,
      "apeutic": 8233,
      "Austral": 8234,
      "Joh": 8235,
      "OS": 8236,
      "Rican": 8237,
      "fashion": 8238,
      "inf": 8239,
      "insignificant": 8240,
      "replaced": 8241,
      "alert": 8242,
      "designed": 8243,
      "christ": 8244,
      "ceiling": 8245,
      "irus": 8246,
      "sche": 8247,
      "mption": 8248,
      "monday": 8249,
      "raising": 8250,
      "loosing": 8251,
      "choke": 8252,
      "ITH": 8253,
      "refusing": 8254,
      "travelling": 8255,
      "fantastic": 8256,
      "slam": 8257,
      "Sub": 8258,
      "biopsy": 8259,
      "bags": 8260,
      "rupted": 8261,
      "relapsed": 8262,
      "sweaty": 8263,
      "bottles": 8264,
      "thorough": 8265,
      "procrastinate": 8266,
      "budget": 8267,
      "demanding": 8268,
      "surprisingly": 8269,
      "amoeba": 8270,
      "paragraph": 8271,
      "drow": 8272,
      "fice": 8273,
      "twent": 8274,
      "infin": 8275,
      "tori": 8276,
      "resi": 8277,
      "metal": 8278,
      "wher": 8279,
      "model": 8280,
      "unsafe": 8281,
      "unattractive": 8282,
      "lifes": 8283,
      "wouldnt": 8284,
      "dermatologist": 8285,
      "trap": 8286,
      "olism": 8287,
      "carried": 8288,
      "curiosity": 8289,
      "medio": 8290,
      "girlfriends": 8291,
      "Peace": 8292,
      "tware": 8293,
      "twisted": 8294,
      "climate": 8295,
      "Didn": 8296,
      "paperwork": 8297,
      "USA": 8298,
      "agrees": 8299,
      "fulfilled": 8300,
      "spells": 8301,
      "camera": 8302,
      "depersonalization": 8303,
      "soccer": 8304,
      "CH": 8305,
      "Hate": 8306,
      "Pri": 8307,
      "WITH": 8308,
      "cities": 8309,
      "mute": 8310,
      "plot": 8311,
      "sits": 8312,
      "vag": 8313,
      "noises": 8314,
      "betic": 8315,
      "justified": 8316,
      "antly": 8317,
      "herbs": 8318,
      "prob": 8319,
      "clown": 8320,
      "childish": 8321,
      "playlist": 8322,
      "personalities": 8323,
      "adds": 8324,
      "deaths": 8325,
      "borrow": 8326,
      "freaks": 8327,
      "Deep": 8328,
      "drawn": 8329,
      "balanced": 8330,
      "regards": 8331,
      "phomore": 8332,
      "frequency": 8333,
      "clients": 8334,
      "porate": 8335,
      "policy": 8336,
      "tracks": 8337,
      "filter": 8338,
      "claimer": 8339,
      "defend": 8340,
      "dysfunction": 8341,
      "requested": 8342,
      "duty": 8343,
      "allevi": 8344,
      "software": 8345,
      "traditional": 8346,
      "anniversary": 8347,
      "wherever": 8348,
      "Great": 8349,
      "Ste": 8350,
      "jit": 8351,
      "south": 8352,
      "noone": 8353,
      "artery": 8354,
      "kemia": 8355,
      "idone": 8356,
      "coord": 8357,
      "ssri": 8358,
      "unworthy": 8359,
      "donate": 8360,
      "acks": 8361,
      "overnight": 8362,
      "spare": 8363,
      "headphones": 8364,
      "reassuring": 8365,
      "risper": 8366,
      "tender": 8367,
      "breaths": 8368,
      "Mostly": 8369,
      "secrets": 8370,
      "films": 8371,
      "fleeting": 8372,
      "witness": 8373,
      "invested": 8374,
      "resentful": 8375,
      "document": 8376,
      "tweet": 8377,
      "jerk": 8378,
      "sacrifice": 8379,
      "eternity": 8380,
      "acetam": 8381,
      "deprived": 8382,
      "Emp": 8383,
      "Fo": 8384,
      "Job": 8385,
      "NA": 8386,
      "Vy": 8387,
      "sample": 8388,
      "xim": 8389,
      "yellow": 8390,
      "bell": 8391,
      "therapeutic": 8392,
      "proje": 8393,
      "scam": 8394,
      "goodnight": 8395,
      "bloody": 8396,
      "tted": 8397,
      "ANYTHING": 8398,
      "Read": 8399,
      "resulting": 8400,
      "intensive": 8401,
      "allows": 8402,
      "viewed": 8403,
      "chain": 8404,
      "contrast": 8405,
      "schizo": 8406,
      "Guys": 8407,
      "statistics": 8408,
      "remaining": 8409,
      "Talking": 8410,
      "molested": 8411,
      "Major": 8412,
      "Imagine": 8413,
      "55": 8414,
      "66": 8415,
      "Ask": 8416,
      "Kill": 8417,
      "Lol": 8418,
      "Test": 8419,
      "latter": 8420,
      "pins": 8421,
      "sca": 8422,
      "tc": 8423,
      "uh": 8424,
      "mot": 8425,
      "unnecessary": 8426,
      "xia": 8427,
      "plastic": 8428,
      "norm": 8429,
      "socialization": 8430,
      "broad": 8431,
      "fund": 8432,
      "blade": 8433,
      "counts": 8434,
      "compens": 8435,
      "magically": 8436,
      "vote": 8437,
      "barrier": 8438,
      "educated": 8439,
      "healed": 8440,
      "debating": 8441,
      "accomplished": 8442,
      "directions": 8443,
      "insulted": 8444,
      "LIKE": 8445,
      "immensely": 8446,
      "virtual": 8447,
      "acquaintances": 8448,
      "tragic": 8449,
      "John": 8450,
      ":-": 8451,
      "Cre": 8452,
      "eso": 8453,
      "fif": 8454,
      "mun": 8455,
      "rating": 8456,
      "thom": 8457,
      "atonin": 8458,
      "holy": 8459,
      "xide": 8460,
      "spaces": 8461,
      "matched": 8462,
      "pushes": 8463,
      "couples": 8464,
      "creat": 8465,
      "eats": 8466,
      "magical": 8467,
      "imagined": 8468,
      "speaker": 8469,
      "partially": 8470,
      "VERY": 8471,
      "discussing": 8472,
      "reported": 8473,
      "aimed": 8474,
      "legitimate": 8475,
      "scholarship": 8476,
      "aspirations": 8477,
      "tiktok": 8478,
      "twenty": 8479,
      "',": 8480,
      "GF": 8481,
      "Might": 8482,
      "Made": 8483,
      "cam": 8484,
      "eed": 8485,
      "stones": 8486,
      "fornia": 8487,
      "outpatient": 8488,
      "cocaine": 8489,
      "pest": 8490,
      "uncommon": 8491,
      "upstairs": 8492,
      "stores": 8493,
      "Soci": 8494,
      "bott": 8495,
      "partying": 8496,
      "tiredness": 8497,
      "trend": 8498,
      "riding": 8499,
      "alcoholism": 8500,
      "shuts": 8501,
      "commented": 8502,
      "prescriptions": 8503,
      "invest": 8504,
      "America": 8505,
      "dysfunctional": 8506,
      "challenges": 8507,
      "doubting": 8508,
      "exclusive": 8509,
      "platform": 8510,
      "reatment": 8511,
      "talented": 8512,
      "annoyance": 8513,
      "spasms": 8514,
      "records": 8515,
      "indifferent": 8516,
      "infected": 8517,
      "technology": 8518,
      "!”": 8519,
      "9th": 8520,
      "dx": 8521,
      "fried": 8522,
      "luc": 8523,
      "rated": 8524,
      "rition": 8525,
      "saf": 8526,
      "inje": 8527,
      "entitled": 8528,
      "untreated": 8529,
      "needy": 8530,
      "offering": 8531,
      "painting": 8532,
      "publ": 8533,
      "showers": 8534,
      "president": 8535,
      "compound": 8536,
      "smooth": 8537,
      "Possi": 8538,
      "sticks": 8539,
      "nutrition": 8540,
      "contemplate": 8541,
      "technique": 8542,
      "Normal": 8543,
      "frightened": 8544,
      "graphic": 8545,
      "cheese": 8546,
      "Meanwhile": 8547,
      "Lamotrigine": 8548,
      "Qm": 8549,
      "WE": 8550,
      "bacter": 8551,
      "fasc": 8552,
      "tends": 8553,
      "renew": 8554,
      "etal": 8555,
      "absur": 8556,
      "unwell": 8557,
      "daydream": 8558,
      "pers": 8559,
      "inducing": 8560,
      "makeup": 8561,
      "realistically": 8562,
      "calcul": 8563,
      "denying": 8564,
      "craft": 8565,
      "anticip": 8566,
      "......": 8567,
      "darker": 8568,
      "flood": 8569,
      "daughters": 8570,
      "Psych": 8571,
      "deleting": 8572,
      "labels": 8573,
      "Makes": 8574,
      "suspicious": 8575,
      "cashier": 8576,
      "Half": 8577,
      "DVT": 8578,
      "lawyer": 8579,
      "Cut": 8580,
      "FF": 8581,
      "Were": 8582,
      "Wtf": 8583,
      "crea": 8584,
      "dum": 8585,
      "han": 8586,
      "nostal": 8587,
      "sophomore": 8588,
      "ament": 8589,
      "hateful": 8590,
      "pron": 8591,
      "pric": 8592,
      "owned": 8593,
      "Allah": 8594,
      "learnt": 8595,
      "classroom": 8596,
      "specting": 8597,
      "repet": 8598,
      "casually": 8599,
      "achieving": 8600,
      "priority": 8601,
      "Seems": 8602,
      "observing": 8603,
      "humiliated": 8604,
      "India": 8605,
      "overdosing": 8606,
      "compulsive": 8607,
      "transportation": 8608,
      "buprof": 8609,
      "institution": 8610,
      "fuzzy": 8611,
      "absurd": 8612,
      "buprofen": 8613,
      "YE": 8614,
      "gastro": 8615,
      "ians": 8616,
      "piling": 8617,
      "toes": 8618,
      "enthus": 8619,
      "asy": 8620,
      "lifel": 8621,
      "hop": 8622,
      "exchange": 8623,
      "fibro": 8624,
      "eft": 8625,
      "applies": 8626,
      "subtle": 8627,
      "basket": 8628,
      "yees": 8629,
      "nonexist": 8630,
      "fatal": 8631,
      "lecture": 8632,
      "cardiogram": 8633,
      "resistant": 8634,
      "skep": 8635,
      "companies": 8636,
      "introduced": 8637,
      "liquid": 8638,
      "Damn": 8639,
      "enthusi": 8640,
      "TER": 8641,
      "ema": 8642,
      "gning": 8643,
      "hence": 8644,
      "ths": 8645,
      "altogether": 8646,
      "adverse": 8647,
      "diary": 8648,
      "comorbid": 8649,
      "redd": 8650,
      "lessen": 8651,
      "wore": 8652,
      "izations": 8653,
      "avirus": 8654,
      "tress": 8655,
      "smoker": 8656,
      "sterol": 8657,
      "alongside": 8658,
      "gland": 8659,
      "saturday": 8660,
      "bearing": 8661,
      "flip": 8662,
      "limits": 8663,
      "Look": 8664,
      "Losing": 8665,
      "cigarette": 8666,
      "Stomach": 8667,
      "virtually": 8668,
      "tumour": 8669,
      "sneak": 8670,
      "vertigo": 8671,
      "08": 8672,
      ":'": 8673,
      "BI": 8674,
      "Call": 8675,
      "EV": 8676,
      "USE": 8677,
      "inspir": 8678,
      "oring": 8679,
      "mold": 8680,
      "unusual": 8681,
      "pops": 8682,
      "acked": 8683,
      "realising": 8684,
      "advanced": 8685,
      "hugged": 8686,
      "rushing": 8687,
      "NOTHING": 8688,
      "purposely": 8689,
      "employees": 8690,
      "mildly": 8691,
      "apologies": 8692,
      "spiraled": 8693,
      "consume": 8694,
      "competitive": 8695,
      "websites": 8696,
      "rooted": 8697,
      "solely": 8698,
      "Second": 8699,
      "bubble": 8700,
      "bucks": 8701,
      "poverty": 8702,
      "comparison": 8703,
      "600": 8704,
      "Cali": 8705,
      "Watch": 8706,
      "dare": 8707,
      "gus": 8708,
      "era": 8709,
      "retire": 8710,
      "enrolled": 8711,
      "abrupt": 8712,
      "reluc": 8713,
      "bugs": 8714,
      "showered": 8715,
      "sentences": 8716,
      "harmless": 8717,
      "contacts": 8718,
      "risks": 8719,
      "apology": 8720,
      "diabetic": 8721,
      "ART": 8722,
      "adjusting": 8723,
      "procrastinating": 8724,
      "heightened": 8725,
      "dedicated": 8726,
      "Tl": 8727,
      "aked": 8728,
      "bin": 8729,
      "mill": 8730,
      "pess": 8731,
      "pages": 8732,
      "ramp": 8733,
      "rics": 8734,
      "——": 8735,
      "toe": 8736,
      "alar": 8737,
      "dearly": 8738,
      "design": 8739,
      "river": 8740,
      "Thro": 8741,
      "monal": 8742,
      "ollow": 8743,
      "discharged": 8744,
      "fathom": 8745,
      "angel": 8746,
      "tickets": 8747,
      "wellbutrin": 8748,
      "bites": 8749,
      "kidding": 8750,
      "sucking": 8751,
      "Alone": 8752,
      "facts": 8753,
      "compati": 8754,
      "freezing": 8755,
      "trade": 8756,
      "involving": 8757,
      "qualified": 8758,
      "competition": 8759,
      "defense": 8760,
      "knocked": 8761,
      "ambition": 8762,
      "EMDR": 8763,
      "oxygen": 8764,
      "reputation": 8765,
      "pessim": 8766,
      "AK": 8767,
      "Bar": 8768,
      "Mid": 8769,
      "pg": 8770,
      "pier": 8771,
      "leech": 8772,
      "upbringing": 8773,
      "elsewhere": 8774,
      "enced": 8775,
      "differences": 8776,
      "cursed": 8777,
      "attacked": 8778,
      "definition": 8779,
      "describing": 8780,
      "Stressed": 8781,
      "Example": 8782,
      "awkwardness": 8783,
      "meditating": 8784,
      "neurotic": 8785,
      "occurring": 8786,
      "combined": 8787,
      "autoimmune": 8788,
      "UTI": 8789,
      "performing": 8790,
      "vaccinated": 8791,
      "deteriorating": 8792,
      "Symp": 8793,
      "inept": 8794,
      "//": 8795,
      "AF": 8796,
      "NT": 8797,
      "Schiz": 8798,
      "rhy": 8799,
      "uled": 8800,
      "ona": 8801,
      "leu": 8802,
      "tier": 8803,
      "arest": 8804,
      "mainten": 8805,
      "ulations": 8806,
      "prolonged": 8807,
      "sheer": 8808,
      "closure": 8809,
      "surge": 8810,
      "Everybody": 8811,
      "testim": 8812,
      "pics": 8813,
      "positivity": 8814,
      "arrange": 8815,
      "eeee": 8816,
      "silently": 8817,
      "shameful": 8818,
      "irritation": 8819,
      "crumble": 8820,
      "rejections": 8821,
      "Chest": 8822,
      "benzo": 8823,
      "decline": 8824,
      "Talk": 8825,
      "WAYS": 8826,
      "involuntarily": 8827,
      "sleepless": 8828,
      "vegetable": 8829,
      "Woke": 8830,
      "DID": 8831,
      "FM": 8832,
      "Sum": 8833,
      "WK": 8834,
      "aun": 8835,
      "cc": 8836,
      "ovar": 8837,
      "sar": 8838,
      "tang": 8839,
      "recon": 8840,
      "alp": 8841,
      "lyrics": 8842,
      "utism": 8843,
      "moody": 8844,
      "astically": 8845,
      "gum": 8846,
      "monot": 8847,
      "disrespectful": 8848,
      "lessness": 8849,
      "paint": 8850,
      "tically": 8851,
      "assholes": 8852,
      "clu": 8853,
      "choking": 8854,
      "isocial": 8855,
      "supply": 8856,
      "seeming": 8857,
      "appearing": 8858,
      "weaker": 8859,
      "instability": 8860,
      "Chron": 8861,
      "insecurity": 8862,
      "promises": 8863,
      "neurodiver": 8864,
      "dragged": 8865,
      "neighb": 8866,
      "labor": 8867,
      "chemicals": 8868,
      "worsened": 8869,
      "volunteer": 8870,
      "monolo": 8871,
      "dehydrated": 8872,
      "sneeze": 8873,
      "chapter": 8874,
      "resili": 8875,
      "repetitive": 8876,
      "))": 8877,
      "Found": 8878,
      "Growing": 8879,
      "IU": 8880,
      "PER": 8881,
      "ius": 8882,
      "wits": 8883,
      "witch": 8884,
      "inable": 8885,
      "inspi": 8886,
      "stared": 8887,
      "feared": 8888,
      "icitis": 8889,
      "entry": 8890,
      "endured": 8891,
      "conqu": 8892,
      "concussion": 8893,
      "arts": 8894,
      "promotion": 8895,
      "athle": 8896,
      "buz": 8897,
      "curring": 8898,
      "Week": 8899,
      "sufferer": 8900,
      "horrend": 8901,
      "hormonal": 8902,
      "subsided": 8903,
      "mentioning": 8904,
      "musician": 8905,
      "ditionally": 8906,
      "140": 8907,
      "Additionally": 8908,
      "Comp": 8909,
      "occurs": 8910,
      "contradic": 8911,
      "manipulated": 8912,
      "intellect": 8913,
      "ironic": 8914,
      "colonos": 8915,
      "population": 8916,
      "TIME": 8917,
      "vape": 8918,
      "platonic": 8919,
      "Sadly": 8920,
      "discouraged": 8921,
      "shorter": 8922,
      "physio": 8923,
      "110": 8924,
      "72": 8925,
      "?\".": 8926,
      "MAN": 8927,
      "PI": 8928,
      "Sick": 8929,
      "zens": 8930,
      "todd": 8931,
      "represent": 8932,
      "asis": 8933,
      "whisper": 8934,
      "vering": 8935,
      "gov": 8936,
      "antisocial": 8937,
      "poly": 8938,
      "shine": 8939,
      "epile": 8940,
      "blessed": 8941,
      "guided": 8942,
      "cture": 8943,
      "grace": 8944,
      "serv": 8945,
      "opposed": 8946,
      "biting": 8947,
      "pump": 8948,
      "spont": 8949,
      "boyfriends": 8950,
      "psychiatry": 8951,
      "supports": 8952,
      "october": 8953,
      "STILL": 8954,
      "organs": 8955,
      "attraction": 8956,
      "quietly": 8957,
      "hideous": 8958,
      "obsessively": 8959,
      "infections": 8960,
      "achievement": 8961,
      "boxes": 8962,
      "punched": 8963,
      "punished": 8964,
      "stimulated": 8965,
      "Comple": 8966,
      "banned": 8967,
      "bowl": 8968,
      "reducing": 8969,
      "entertainment": 8970,
      "bubbly": 8971,
      "Within": 8972,
      "floaters": 8973,
      "remains": 8974,
      "armpit": 8975,
      "cardiac": 8976,
      "98": 8977,
      "War": 8978,
      "brid": 8979,
      "cab": 8980,
      "otic": 8981,
      "yay": 8982,
      "instru": 8983,
      "resign": 8984,
      "stages": 8985,
      "desc": 8986,
      "ripped": 8987,
      "chy": 8988,
      "ryl": 8989,
      "hers": 8990,
      "uling": 8991,
      "plants": 8992,
      "joked": 8993,
      "gums": 8994,
      "...)": 8995,
      "extensive": 8996,
      "server": 8997,
      "effe": 8998,
      "mattress": 8999,
      "mattered": 9000,
      "weights": 9001,
      "capital": 9002,
      "processing": 9003,
      "ONG": 9004,
      "hunting": 9005,
      "ranted": 9006,
      "Worst": 9007,
      "environ": 9008,
      "GPA": 9009,
      "withdrawn": 9010,
      "counsell": 9011,
      "injuries": 9012,
      "lux": 9013,
      "clarify": 9014,
      "masters": 9015,
      "predictable": 9016,
      "resonate": 9017,
      "sincerely": 9018,
      "advocate": 9019,
      "philosophy": 9020,
      "wrapped": 9021,
      "PCO": 9022,
      "UP": 9023,
      "WAS": 9024,
      "gang": 9025,
      "mart": 9026,
      "tent": 9027,
      "semb": 9028,
      "beta": 9029,
      "liar": 9030,
      "icy": 9031,
      "rig": 9032,
      "chal": 9033,
      "venge": 9034,
      "whatnot": 9035,
      "vibr": 9036,
      "orders": 9037,
      "deals": 9038,
      "Afraid": 9039,
      "gestion": 9040,
      "viewing": 9041,
      "spiralling": 9042,
      "accus": 9043,
      "failures": 9044,
      "UCH": 9045,
      "occasion": 9046,
      "slipped": 9047,
      "quetiapine": 9048,
      "vitamins": 9049,
      "basement": 9050,
      "amongst": 9051,
      "manifest": 9052,
      "operate": 9053,
      "compliments": 9054,
      "providing": 9055,
      "grinding": 9056,
      "acknowledged": 9057,
      "eliminate": 9058,
      "sufficient": 9059,
      "mediocre": 9060,
      "clubs": 9061,
      "PCOS": 9062,
      "Hear": 9063,
      "Left": 9064,
      "Plan": 9065,
      "Sigh": 9066,
      "bak": 9067,
      "ht": 9068,
      "jac": 9069,
      "ras": 9070,
      "tro": 9071,
      "yp": 9072,
      "meme": 9073,
      "beers": 9074,
      "edu": 9075,
      "device": 9076,
      "unlucky": 9077,
      "irregular": 9078,
      "apy": 9079,
      "tazapine": 9080,
      "ilarly": 9081,
      "trail": 9082,
      "olan": 9083,
      "distor": 9084,
      "ishing": 9085,
      "greed": 9086,
      "posture": 9087,
      "atted": 9088,
      "attended": 9089,
      "emotionless": 9090,
      "continuous": 9091,
      "chased": 9092,
      "threaten": 9093,
      "flies": 9094,
      "TLY": 9095,
      "strive": 9096,
      "destruction": 9097,
      "subjects": 9098,
      "affirm": 9099,
      "dissociate": 9100,
      "endlessly": 9101,
      "lenol": 9102,
      "practitioner": 9103,
      "Psychiatrist": 9104,
      "junior": 9105,
      "Mc": 9106,
      "TR": 9107,
      "YY": 9108,
      "yall": 9109,
      "lethar": 9110,
      "lesterol": 9111,
      "elder": 9112,
      "ama": 9113,
      "declin": 9114,
      "aby": 9115,
      "mol": 9116,
      "quiz": 9117,
      "monary": 9118,
      "tortured": 9119,
      "cheaper": 9120,
      "medicating": 9121,
      "cholesterol": 9122,
      "senti": 9123,
      "obli": 9124,
      "testic": 9125,
      "eyel": 9126,
      "skilled": 9127,
      "supermarket": 9128,
      "corre": 9129,
      "ultimate": 9130,
      "grave": 9131,
      "trained": 9132,
      "Program": 9133,
      "stabbed": 9134,
      "bars": 9135,
      "belongings": 9136,
      "piss": 9137,
      "flexi": 9138,
      "breasts": 9139,
      "sustainable": 9140,
      "sabotage": 9141,
      "Super": 9142,
      "errors": 9143,
      "warranted": 9144,
      "digestive": 9145,
      "coincidence": 9146,
      "plagued": 9147,
      "Severe": 9148,
      "accompanied": 9149,
      "safer": 9150,
      "pessimistic": 9151,
      "Cele": 9152,
      "Hor": 9153,
      "Live": 9154,
      "Op": 9155,
      "XL": 9156,
      "iq": 9157,
      "mac": 9158,
      "masks": 9159,
      "sized": 9160,
      "abies": 9161,
      "moon": 9162,
      "coz": 9163,
      "illy": 9164,
      "talents": 9165,
      "centre": 9166,
      "heartbreak": 9167,
      "explicit": 9168,
      "suggestion": 9169,
      "Star": 9170,
      "professors": 9171,
      "chronically": 9172,
      "slim": 9173,
      "bruise": 9174,
      "restaurants": 9175,
      "observe": 9176,
      "modern": 9177,
      "Highly": 9178,
      "Better": 9179,
      "proceeded": 9180,
      "companion": 9181,
      "wkwk": 9182,
      "inherently": 9183,
      "auditory": 9184,
      "variety": 9185,
      "robbed": 9186,
      "rescue": 9187,
      "clenching": 9188,
      "execut": 9189,
      "Vyvanse": 9190,
      "spontane": 9191,
      "7th": 9192,
      "ACT": 9193,
      "EE": 9194,
      "Upd": 9195,
      "fare": 9196,
      "mort": 9197,
      "vap": 9198,
      "remark": 9199,
      "stain": 9200,
      "elbow": 9201,
      "elabor": 9202,
      "youn": 9203,
      "shits": 9204,
      "overcoming": 9205,
      "medy": 9206,
      "opath": 9207,
      "named": 9208,
      "bland": 9209,
      "italin": 9210,
      "ames": 9211,
      "marketing": 9212,
      "contacted": 9213,
      "lined": 9214,
      "layer": 9215,
      "teenagers": 9216,
      "accomplishments": 9217,
      "Cheers": 9218,
      "leaning": 9219,
      "kidneys": 9220,
      "Buspar": 9221,
      "confrontation": 9222,
      "hooked": 9223,
      "crowded": 9224,
      "detect": 9225,
      "electricity": 9226,
      "hypno": 9227,
      "jittery": 9228,
      "Symptoms": 9229,
      "Eli": 9230,
      "Hard": 9231,
      "Spr": 9232,
      "UZ": 9233,
      "gast": 9234,
      "ko": 9235,
      "tinder": 9236,
      "wre": 9237,
      "inations": 9238,
      "stere": 9239,
      "noxi": 9240,
      "solo": 9241,
      "dozens": 9242,
      "forbid": 9243,
      "etanus": 9244,
      "thisia": 9245,
      "urt": 9246,
      "provo": 9247,
      "wning": 9248,
      "backed": 9249,
      "needle": 9250,
      "rug": 9251,
      "angle": 9252,
      "item": 9253,
      "clothing": 9254,
      "cleared": 9255,
      "comprom": 9256,
      "explains": 9257,
      "excell": 9258,
      "legally": 9259,
      "crime": 9260,
      "fourth": 9261,
      "Come": 9262,
      "associate": 9263,
      "stimulants": 9264,
      "stools": 9265,
      "wounds": 9266,
      "###": 9267,
      "obligation": 9268,
      "________________": 9269,
      "echocardiogram": 9270,
      "cudd": 9271,
      "voluntary": 9272,
      "heroin": 9273,
      "phenomen": 9274,
      "navigate": 9275,
      "tremendously": 9276,
      "Geodon": 9277,
      "appendicitis": 9278,
      "abruptly": 9279,
      "leukemia": 9280,
      "250": 9281,
      "B12": 9282,
      "KILL": 9283,
      "Male": 9284,
      "Sound": 9285,
      "TF": 9286,
      "XRN": 9287,
      "bis": 9288,
      "cere": 9289,
      "rt": 9290,
      "tab": 9291,
      "tldr": 9292,
      "anity": 9293,
      "atches": 9294,
      "alta": 9295,
      "sep": 9296,
      "tible": 9297,
      "expl": 9298,
      "agand": 9299,
      "foster": 9300,
      "plu": 9301,
      "scroll": 9302,
      "download": 9303,
      "medicines": 9304,
      "calms": 9305,
      "foundation": 9306,
      "flutter": 9307,
      "drops": 9308,
      "corpse": 9309,
      "freel": 9310,
      "metap": 9311,
      "State": 9312,
      "tub": 9313,
      "tues": 9314,
      "chats": 9315,
      "BP1": 9316,
      "jealousy": 9317,
      "vyvanse": 9318,
[...]
